<pad>	0
<unk>	0
<s>	0
</s>	0
.	-2.95717
▁	-3.53583
:	-3.56682
▁to	-3.62962
▁Rs	-3.66896
▁UPI	-3.81075
▁f	-3.91136
rom	-3.9123
/	-4.0653
▁A	-4.12293
a	-4.29207
▁on	-4.29621
c	-4.43097
▁Ref	-4.49218
▁Bank	-4.55407
▁vi	-4.59477
▁S	-4.67023
@	-4.75925
▁of	-4.83927
us	-4.88824
▁Stat	-4.93583
I	-4.95118
)	-5.06449
▁(	-5.0731
▁Alert	-5.08865
ESS	-5.11365
UCC	-5.11421
LED	-5.12262
▁FA	-5.12331
s	-5.18547
,	-5.19621
▁transfer	-5.23196
▁for	-5.23806
sent	-5.26779
r	-5.38577
▁transaction	-5.57924
▁Transaction	-5.592
▁XX	-5.67456
▁payment	-5.70111
▁You	-5.71659
▁XXXX	-5.71702
▁HDFC	-5.74474
▁TXN	-5.77233
▁INR	-5.80155
▁received	-5.85905
red	-5.88332
▁your	-5.96094
k	-5.98705
!	-6.04969
-2025.	-6.08963
▁xxxx	-6.10589
5	-6.11787
▁debited	-6.12775
paytm	-6.18882
▁P	-6.19345
b	-6.20377
C	-6.27334
://	-6.29253
▁http	-6.30003
t	-6.32944
m	-6.36514
▁credited	-6.36707
4	-6.37992
2	-6.38996
▁is	-6.423
ICICI	-6.42738
▁I	-6.45125
aan	-6.47964
7	-6.48327
▁at	-6.48884
1	-6.49093
8	-6.49198
▁successful	-6.4979
▁On	-6.50222
6	-6.50581
▁R	-6.51972
▁Na	-6.52036
▁Y	-6.5227
n	-6.54143
▁B	-6.55296
3	-6.5618
vl	-6.56235
9	-6.58291
▁with	-6.62483
R	-6.62739
?	-6.63048
ES	-6.65174
▁Bal	-6.6582
▁To	-6.65968
d	-6.68115
y	-6.69189
0	-6.7041
ed	-6.70675
SMS	-6.72305
LO	-6.72707
▁Call	-6.73755
CK	-6.75617
DFC	-6.7592
h	-6.76321
S	-6.76743
▁18002586161	-6.76801
&	-6.77218
▁Not	-6.78093
7308	-6.79945
080808	-6.80403
ent	-6.81321
%	-6.81653
▁not	-6.82967
▁-	-6.82971
com	-6.83175
▁Transfer	-6.84589
▁bal	-6.85038
▁From	-6.89207
▁Card	-6.89489
▁be	-6.90981
-	-6.94376
▁SAVE	-6.95262
▁India	-6.97031
p	-6.97256
▁in	-6.97567
▁D	-6.98826
Jul	-6.98848
▁Kota	-6.99874
▁U	-7.00085
tional	-7.004
▁code	-7.00947
_	-7.01282
▁Pu	-7.02597
nja	-7.02877
ing	-7.03526
0545	-7.04408
▁Axis	-7.04431
Jun	-7.04982
f	-7.05625
▁Mahi	-7.05826
▁Credit	-7.0811
▁paid	-7.08633
▁Dea	-7.09128
▁Bar	-7.10935
oda	-7.11129
ndra	-7.11625
en	-7.11628
l	-7.11729
▁M	-7.11805
iya	-7.11913
e	-7.12715
▁State	-7.1314
▁you	-7.13314
ST	-7.13973
Aug	-7.15483
ybl	-7.15748
sh	-7.17347
Ind	-7.20761
▁L	-7.208
vi	-7.2404
▁Indus	-7.24838
▁off	-7.25003
025.	-7.25581
has	-7.2655
▁T	-7.26564
▁Customer	-7.2678
▁FI	-7.27934
▁E	-7.27954
▁the	-7.29917
▁Use	-7.29917
sbi	-7.30109
▁ID	-7.30405
50	-7.3259
jio	-7.34778
E	-7.34822
▁Hi	-7.35105
▁alert	-7.35746
▁now	-7.36133
*0545	-7.36181
NB	-7.36355
▁K	-7.37188
▁Dheeraj	-7.37259
*	-7.37488
co	-7.37913
77	-7.38709
▁Valid	-7.38788
45	-7.38813
ibl	-7.39214
83	-7.39304
96	-7.40343
76	-7.40412
81	-7.41031
in	-7.41298
▁10	-7.42044
▁Tx	-7.42392
▁Click	-7.42739
G	-7.42933
BOB	-7.43271
80	-7.43679
55	-7.43679
46	-7.43907
D	-7.44191
▁w	-7.44572
transactional	-7.44772
oksbi	-7.44772
axl	-7.45184
06	-7.45474
▁account	-7.45597
▁1	-7.45823
▁as	-7.46178
13	-7.46557
▁share	-7.46847
70	-7.46902
25	-7.47114
86	-7.47117
90	-7.47182
38	-7.47615
82	-7.47631
▁SBI	-7.48435
27	-7.48819
32	-7.48952
26	-7.49314
71	-7.49619
69	-7.5047
65	-7.51037
z	-7.51518
72	-7.52192
79	-7.52447
18	-7.52633
VPA	-7.53891
68	-7.5491
'	-7.55148
▁Limited	-7.55162
15	-7.55493
ya	-7.55878
98	-7.56182
u	-7.56388
04	-7.57044
T	-7.57159
okhdfcbank	-7.57453
93	-7.57686
20	-7.57831
97	-7.57843
49	-7.57921
59	-7.58145
51	-7.58399
00	-7.58546
w	-7.58931
63	-7.59242
upi	-7.59338
07	-7.59342
28	-7.59471
▁and	-7.59985
54	-7.60121
▁Balance	-7.60298
AK	-7.60426
kotak	-7.6077
IND	-7.60775
14	-7.62317
74	-7.62503
24	-7.62896
03	-7.63219
i	-7.63478
okaxis	-7.63705
AXIS	-7.63707
▁QR	-7.63707
▁OTP	-7.64703
33	-7.64923
▁V	-7.64955
idfcbank	-7.65205
▁IMPS	-7.65258
A	-7.65318
▁INDUS	-7.6571
35	-7.66073
47	-7.66103
61	-7.66155
▁link	-7.66206
KOT	-7.66252
43	-7.6645
22	-7.6658
▁Code	-7.6724
57	-7.67343
Housing	-7.67758
sng	-7.6777
73	-7.67902
j	-7.67928
41	-7.68235
x	-7.70225
11	-7.70333
60	-7.70337
mat	-7.70387
K	-7.70431
66	-7.71687
▁Do	-7.71688
89	-7.71909
16	-7.72122
64	-7.72167
17	-7.72298
▁Payment	-7.73063
▁NEFT	-7.73609
95	-7.73757
78	-7.74271
29	-7.7454
v	-7.74958
12	-7.75184
▁x	-7.75291
87	-7.7603
▁5	-7.76157
▁Jio	-7.76391
08	-7.76498
94	-7.7685
▁Ki	-7.77075
92	-7.77351
ww	-7.78137
34	-7.78411
UPI	-7.78648
il	-7.79409
23	-7.79551
99	-7.79566
▁balance	-7.80417
▁offer	-7.80501
M	-7.81472
01	-7.82565
▁Banking	-7.82795
+	-7.82831
▁H	-7.82909
▁Get	-7.83386
▁Sh	-7.83454
▁Amazon	-7.83705
40	-7.83854
NG	-7.84537
repaid	-7.8462
o	-7.84852
10	-7.84897
ir	-7.85215
HOU	-7.85219
▁out	-7.85264
F	-7.85567
91	-7.85681
75	-7.86052
Y	-7.86096
nsh	-7.86823
▁Shop	-7.87081
▁Hyderabad	-7.87108
84	-7.8916
ra	-7.8931
37	-7.89477
19	-7.8966
▁C	-7.90085
▁spent	-7.90265
▁Avail	-7.90328
58	-7.90522
ky	-7.91737
B	-7.92193
g	-7.92697
▁CR	-7.93196
56	-7.93299
▁O	-7.9364
▁Ar	-7.94359
X	-7.94374
▁15	-7.95033
▁F	-7.95369
H	-7.95502
▁minutes	-7.95581
్	-7.95975
▁**	-7.96479
48	-7.9725
44	-7.973
N	-7.97485
▁time	-7.97509
▁failed	-7.97652
02	-7.98159
09	-7.98238
67	-7.98413
▁plan	-7.98489
39	-7.98895
.34	-7.99039
▁Mobile	-7.99053
avanya	-7.99768
ju	-7.99813
▁Ka	-8.00331
▁Anahi	-8.00478
▁JioFiber	-8.00504
30	-8.00794
52	-8.00825
▁added	-8.01205
mart	-8.0187
88	-8.01921
31	-8.03174
.42	-8.03695
▁dis	-8.04205
53	-8.04346
▁2	-8.04368
J	-8.04383
isha	-8.04557
▁this	-8.04874
42	-8.04898
aira	-8.0497
▁7	-8.05231
21	-8.05424
lo	-8.05533
▁till	-8.0563
phonepe	-8.06383
▁Ch	-8.06385
U	-8.06649
▁complete	-8.07148
net	-8.07165
ly	-8.07343
ు	-8.07546
▁request	-8.07915
36	-8.08092
P	-8.08274
count	-8.09454
▁verification	-8.09472
or	-8.09537
▁sale	-8.1026
O	-8.11175
.11	-8.11693
62	-8.11791
▁Dhar	-8.11883
▁Tara	-8.11955
▁call	-8.12901
▁3	-8.13092
Q	-8.13163
.16	-8.13308
-08-25	-8.14081
th	-8.14111
.14	-8.14221
▁Mani	-8.14292
L	-8.15114
.41	-8.15481
-06-25	-8.1577
.31	-8.15942
ul	-8.16289
▁DR	-8.16503
▁6	-8.16669
▁ATM	-8.16926
.96	-8.1708
.12	-8.1733
85	-8.18562
ka	-8.19267
ja	-8.19773
Z	-8.20213
▁Yuv	-8.20226
▁Dhanu	-8.20231
.33	-8.20273
▁Ran	-8.20439
05	-8.20601
.75	-8.20902
bank	-8.21014
▁12	-8.21548
ru	-8.21678
▁Check	-8.22754
er	-8.23366
ill	-8.23519
.36	-8.23548
▁Vi	-8.24268
st	-8.24553
▁anyone	-8.24691
arthik	-8.24693
.48	-8.25019
W	-8.25082
eer	-8.26023
▁Ta	-8.26152
banking	-8.26628
nvi	-8.27593
▁Myntra	-8.28467
mir	-8.28678
.15	-8.28945
mini	-8.2897
▁Ela	-8.29368
yesh	-8.29384
▁Rau	-8.29398
▁Samar	-8.29449
.22	-8.30246
▁login	-8.30374
▁Nish	-8.30748
▁recharge	-8.31336
▁8	-8.32017
▁Divya	-8.32277
.72	-8.32322
▁days	-8.32441
.77	-8.33053
▁by	-8.33298
.55	-8.33818
.18	-8.34061
ber	-8.34196
▁Ivan	-8.34268
▁collect	-8.34275
-2025	-8.34811
▁St	-8.34909
▁22	-8.35168
▁17	-8.36414
V	-8.36697
.82	-8.36747
.47	-8.36831
▁Neh	-8.36851
▁Priya	-8.37369
▁miss	-8.37391
uel	-8.38312
▁Login	-8.38373
Paytm	-8.38374
vya	-8.38407
.23	-8.39069
▁Devan	-8.39423
▁purchase	-8.39423
▁Jivi	-8.39427
▁Jha	-8.39475
▁Yas	-8.39495
.29	-8.39941
.21	-8.4011
▁J	-8.40528
▁Zomato	-8.41563
.68	-8.42872
▁19	-8.42933
.13	-8.42947
▁Refund	-8.42953
.87	-8.43241
▁30	-8.43744
▁OTT	-8.43748
▁9	-8.44022
eh	-8.4424
kar	-8.44588
.46	-8.44778
nak	-8.44855
uvan	-8.44859
▁Dividend	-8.44859
▁Divi	-8.4486
▁Recharge	-8.4488
▁Hri	-8.44912
.81	-8.45097
nav	-8.45221
▁Hans	-8.45302
-07-25	-8.45754
OS	-8.45796
▁Special	-8.45983
▁Croma	-8.46038
▁statement	-8.46103
iran	-8.46287
▁25	-8.4681
anoj	-8.47119
▁Nirv	-8.4804
▁Dis	-8.48264
▁Interest	-8.48269
▁Fla	-8.48272
▁రీ	-8.48368
1.	-8.48453
az	-8.48515
hana	-8.48619
shita	-8.48621
▁24	-8.4868
▁Swiggy	-8.49017
line	-8.49175
▁Tata	-8.49451
aya	-8.49559
hani	-8.4956
▁Fat	-8.49622
-25	-8.49695
▁are	-8.5037
▁ప్లాన్	-8.50608
▁Jayan	-8.50616
▁Flipkart	-8.50629
▁Nit	-8.50654
▁Pari	-8.5076
ohan	-8.50797
.25	-8.50976
ary	-8.51351
▁month	-8.51487
.98	-8.51615
ara	-8.51634
airtel	-8.51897
.27	-8.52068
.19	-8.52089
▁Singh	-8.52995
▁Teja	-8.53003
▁up	-8.53171
.93	-8.5318
3007	-8.53271
▁Mish	-8.53293
▁మీ	-8.54223
▁చేయండి	-8.54244
.65	-8.54452
▁DMart	-8.55457
.56	-8.55621
.44	-8.55902
eya	-8.5596
.45	-8.56023
.67	-8.5631
.28	-8.56482
▁Play	-8.56666
rini	-8.56697
▁Exclusive	-8.56707
▁Advik	-8.5675
on	-8.5759
irtel	-8.5787
▁4	-8.58192
▁16	-8.58831
q	-8.59076
▁₹1	-8.5922
▁property	-8.59281
▁Apollo	-8.59315
anya	-8.59331
.24	-8.59498
.49	-8.59992
amazon	-8.60186
.57	-8.60309
ve	-8.60371
han	-8.6039
/05/25	-8.60543
nlimited	-8.60554
▁Suresh	-8.60554
eque	-8.60569
▁Rao	-8.60589
ti	-8.60762
oot	-8.61836
▁Verification	-8.6187
zad	-8.61875
▁9165	-8.61936
▁Rom	-8.61946
▁13	-8.61973
va	-8.62057
Alia	-8.62602
.32	-8.62671
=	-8.62958
omato	-8.63202
hdfcbank	-8.63204
▁Mam	-8.63237
bi	-8.63243
0.00	-8.63246
▁Zain	-8.63439
.71	-8.64223
▁27	-8.64909
.73	-8.65123
.38	-8.65262
ప	-8.65691
arna	-8.65855
▁BPCL	-8.65924
ihu	-8.65931
ebit	-8.65932
have	-8.6605
.43	-8.66064
eliance	-8.66826
.95	-8.67043
okicici	-8.67313
▁Malhotra	-8.67313
▁Pre	-8.67468
min	-8.67486
▁20	-8.67646
out	-8.67696
nya	-8.67725
▁PM	-8.67801
.86	-8.6795
.64	-8.68131
.53	-8.68265
▁it	-8.68581
▁06	-8.68632
▁Google	-8.68722
JioMart	-8.68722
BANK	-8.68774
▁Lakshit	-8.68781
ని	-8.68872
ajan	-8.70034
nika	-8.70041
yntra	-8.70071
▁Bai	-8.70073
▁Hurry	-8.7015
▁Var	-8.70164
▁NET	-8.70171
hami	-8.70275
▁Anay	-8.70309
.84	-8.70325
dani	-8.70336
.79	-8.70359
BI	-8.71544
▁IRCTC	-8.71599
▁Please	-8.71599
▁Salary	-8.716
▁ready	-8.71887
ore	-8.71951
wiggy	-8.7212
hav	-8.72252
▁18	-8.72417
▁click	-8.7307
▁మరి	-8.7307
antara	-8.731
▁PhonePe	-8.73138
raj	-8.73347
▁Bill	-8.73556
deepak	-8.73577
sanjay	-8.73589
ha	-8.73604
.88	-8.73637
hs	-8.73994
▁Inst	-8.74567
▁Team	-8.74568
gpay	-8.74568
tata	-8.74576
▁Store	-8.74589
ం	-8.74716
hkar	-8.75818
/03/25	-8.75863
ush	-8.75878
play	-8.76082
▁more	-8.76085
▁Prana	-8.76091
▁Rit	-8.76263
.35	-8.76422
▁Ne	-8.76753
.40	-8.76769
యి	-8.76824
▁d	-8.76842
▁Krish	-8.776
irect	-8.77619
▁Barad	-8.77626
.94	-8.77645
▁Indran	-8.77746
▁Su	-8.77824
.99	-8.78116
▁VI	-8.78235
vik	-8.78598
sing	-8.78957
ola	-8.7907
.89	-8.79104
▁Kumar	-8.79179
▁Ola	-8.79181
suresh	-8.79327
neha	-8.79359
▁Sharma	-8.79767
.58	-8.79984
▁Fa	-8.79999
▁EC	-8.80069
anjay	-8.8021
ction	-8.80339
.51	-8.80522
▁cash	-8.80768
TGS	-8.80782
.17	-8.80836
యు	-8.80874
▁Account	-8.80976
Ref	-8.81082
▁details	-8.81178
.30	-8.82283
ే	-8.82317
▁Stand	-8.82384
▁Home	-8.82391
▁Me	-8.82512
▁We	-8.82986
Don	-8.83147
▁Re	-8.83378
▁₹2	-8.83472
ahi	-8.83969
google	-8.84019
axisbank	-8.84021
▁ని	-8.84128
rao	-8.84137
eepak	-8.84184
▁Net	-8.8421
divya	-8.84341
▁get	-8.84343
▁Kash	-8.84398
vikas	-8.84584
▁p	-8.84931
▁90	-8.84962
HP	-8.85102
▁డ	-8.85303
.10	-8.85505
▁Fashion	-8.85685
▁FREE	-8.85686
▁వా	-8.85686
▁Kala	-8.85688
▁apply	-8.85714
▁Sami	-8.85729
▁03	-8.85746
kshi	-8.85762
riti	-8.85846
tik	-8.8604
mur	-8.86078
▁Tai	-8.8614
.66	-8.86229
▁Ra	-8.86469
▁Sara	-8.86823
an	-8.87217
ith	-8.87307
▁Gupta	-8.8738
▁Thank	-8.8738
ay	-8.87471
na	-8.87794
hea	-8.87838
▁55	-8.88068
nisha	-8.88107
ిత	-8.8831
.54	-8.88365
.39	-8.88681
.63	-8.88943
▁Sports	-8.89104
▁CHE	-8.89104
QU	-8.89172
ina	-8.89324
▁Shan	-8.90041
▁My	-8.90265
▁Al	-8.90324
▁14	-8.90542
/07/2025	-8.90751
/04/25	-8.90765
alhot	-8.90858
ఛార్జ	-8.90858
▁Big	-8.90924
dira	-8.91038
el	-8.91431
▁50	-8.91508
ట్	-8.91509
hp	-8.91667
.70	-8.91907
GB	-8.92016
▁Bazaar	-8.92073
irc	-8.92509
▁Exp	-8.92609
▁available	-8.92647
irag	-8.92698
▁Vika	-8.92733
▁report	-8.92836
eena	-8.92863
ిక	-8.93053
hul	-8.93163
▁Mira	-8.93408
▁Him	-8.93494
▁04	-8.93952
▁23	-8.94146
akshit	-8.9439
▁Dube	-8.94408
▁Chaudry	-8.94462
▁Electronics	-8.94463
▁Kiran	-8.94568
ravi	-8.94702
2023	-8.94791
▁no	-8.95281
▁app	-8.95305
▁Ish	-8.95501
/08/2025	-8.95578
tc	-8.96196
kuma	-8.96253
teja	-8.96322
arun	-8.96692
.26	-8.96753
స్	-8.96889
▁Sam	-8.974
just	-8.97733
▁expire	-8.98066
▁exclusive	-8.98201
రిమ	-8.98201
▁card	-8.98226
▁07-	-8.98263
▁The	-8.98465
▁Pluxee	-8.98529
bill	-8.9867
▁Bala	-8.98681
air	-8.98684
2024	-8.99059
▁150	-8.99298
▁11	-8.99344
.97	-8.99381
.76	-8.999
▁Madhu	-9.00124
▁Rajesh	-9.00124
using	-9.0014
ta	-9.00316
▁Ada	-9.00352
yan	-9.00354
ruv	-9.00445
re	-9.00479
zaar	-9.00845
bigba	-9.00987
▁Da	-9.0134
run	-9.01357
ari	-9.01992
prep	-9.02009
▁7306497343	-9.02085
▁PRIVATE	-9.02085
▁Manj	-9.02086
pcl	-9.02092
▁Bhavi	-9.02256
lal	-9.0234
Far	-9.02391
▁26	-9.02435
▁31	-9.02456
app	-9.02472
▁Can	-9.03026
#	-9.03106
rajesh	-9.03127
▁Travel	-9.03502
shi	-9.03769
▁Bha	-9.03971
mani	-9.03997
▁Das	-9.04025
umer	-9.04033
lipkart	-9.04048
ney	-9.04076
adhya	-9.04085
▁Number	-9.04085
▁Ramaswamy	-9.04085
▁like	-9.04085
▁KUMAR	-9.04085
▁Netflix	-9.04087
▁Zo	-9.04087
▁Dugar	-9.04089
▁Khu	-9.04097
▁Gola	-9.04101
▁Keer	-9.04227
▁12-	-9.0426
▁n	-9.04562
od	-9.04706
▁Dh	-9.05008
▁₹4	-9.05107
▁Ko	-9.05133
.90	-9.05163
mpally	-9.05196
al	-9.05576
▁or	-9.05652
ల్	-9.05986
go	-9.06042
.59	-9.06093
▁search	-9.06126
stream	-9.06126
▁deal	-9.06128
5.	-9.06308
▁Char	-9.06561
.08	-9.06632
▁Sha	-9.07093
▁Ja	-9.07511
▁Aar	-9.07622
.52	-9.07676
.07	-9.07698
▁Kar	-9.07898
ys	-9.08053
mang	-9.08209
▁Mbps	-9.08209
adhav	-9.08216
▁new	-9.08226
NOT	-9.08226
id	-9.08314
.61	-9.08381
nas	-9.08416
.2	-9.0848
.37	-9.08652
ati	-9.08716
▁51	-9.09131
mee	-9.09851
▁Hu	-9.10207
చార్	-9.10336
▁Food	-9.10336
▁JioHotstar	-9.10336
▁subscription	-9.10342
-05-25	-9.10369
999	-9.10414
▁Vasa	-9.10697
▁Uni	-9.10787
వ	-9.11636
pooja	-9.11817
aksha	-9.11946
▁Cr	-9.12105
.91	-9.12175
▁Kata	-9.12557
▁Rag	-9.1262
▁Thi	-9.13562
▁DO	-9.1358
▁Dar	-9.13918
న	-9.14089
mit	-9.14314
క	-9.14405
hvi	-9.14417
▁Badal	-9.14733
▁Badami	-9.14733
▁Beauty	-9.14733
▁Ganesan	-9.14733
▁Sawhney	-9.14733
▁Swaminathan	-9.14733
▁Patel	-9.14733
▁Bakshi	-9.14735
▁Nykaa	-9.14736
▁Bath	-9.14738
▁Mane	-9.1474
▁project	-9.14745
▁28-	-9.14759
▁Now	-9.1476
▁Gok	-9.14807
▁Offer	-9.14837
▁Secur	-9.14838
alv	-9.1488
rak	-9.15781
▁Walia	-9.15827
.8	-9.16295
▁Dara	-9.16376
▁Pr	-9.16405
io	-9.16763
▁05-	-9.16848
ooja	-9.16896
▁Vemula	-9.17005
▁పాట	-9.17005
▁Zee	-9.17006
▁Mall	-9.17033
▁un	-9.17042
.20	-9.17104
▁13-	-9.17145
pate	-9.17159
▁G	-9.17268
rvi	-9.17419
▁08	-9.18333
our	-9.18578
▁54	-9.18995
ube	-9.19218
▁connection	-9.19372
stock	-9.19394
▁was	-9.19431
▁08-	-9.19436
mg	-9.1995
▁సం	-9.2001
.74	-9.20267
▁CC	-9.20759
▁GB	-9.20906
my	-9.21435
▁Ri	-9.21514
▁Verma	-9.21712
iv	-9.21764
▁can	-9.21769
▁18-	-9.21804
anil	-9.21878
maya	-9.22211
▁తో	-9.22262
ా	-9.22693
▁Ga	-9.22833
▁24-	-9.22931
.1	-9.23142
▁ఆస్వాదించ	-9.24151
▁Block	-9.24167
▁Sana	-9.24191
.4	-9.24204
▁AM	-9.24381
▁Books	-9.24454
.83	-9.24511
.78	-9.249
shan	-9.25201
▁Sachdev	-9.25249
rch	-9.25779
▁Sur	-9.26186
ర్	-9.26191
.92	-9.26405
▁Rajagopal	-9.26634
napdeal	-9.26651
▁Bhardwaj	-9.26651
▁Jaggi	-9.26651
▁Luthra	-9.26651
▁Mangat	-9.26651
▁Setty	-9.26651
▁Koshy	-9.26651
▁Tailor	-9.26651
▁deposit	-9.26651
▁Bedi	-9.26652
▁Salvi	-9.26652
▁Dada	-9.26653
▁Buch	-9.26661
▁Dasgupta	-9.26663
▁Zachariah	-9.26679
▁Shankar	-9.26683
▁Gill	-9.26685
▁Manne	-9.26702
sunita	-9.26748
▁23-	-9.26758
▁Pura	-9.26869
▁25-	-9.26883
harma	-9.28191
.3	-9.28234
unita	-9.28654
gupta	-9.29194
▁Secunderabad	-9.29215
tne	-9.29218
▁Meal	-9.29237
▁02-	-9.29284
▁any	-9.29292
▁Prime	-9.29294
▁20-	-9.29379
▁Anand	-9.29653
▁06-	-9.29665
3.	-9.29862
mits	-9.29881
ీ	-9.30101
ia	-9.30117
▁01	-9.30331
▁₹3	-9.30621
nil	-9.30657
▁Seh	-9.30679
ch	-9.30741
▁Tr	-9.30837
▁today	-9.31067
▁By	-9.31195
open	-9.31377
Not	-9.31592
▁Bora	-9.31736
▁ప	-9.31822
రోజు	-9.31846
▁Digital	-9.31847
▁enjoy	-9.31847
om	-9.31876
▁09-	-9.31928
dur	-9.31997
▁16-	-9.32023
▁17-	-9.32069
▁Jain	-9.32131
ండి	-9.32177
.05	-9.32521
44.	-9.32572
shar	-9.32603
▁Ani	-9.33455
▁45	-9.33466
జ	-9.34227
91.	-9.34455
▁Srinivas	-9.34533
fiber	-9.34549
ేటా	-9.34549
▁HYDRAA	-9.34549
please	-9.3455
▁here	-9.34552
issue	-9.34559
▁Apply	-9.34575
▁29-	-9.34611
sms	-9.34612
tiny	-9.34684
▁27-	-9.34694
▁tanvi	-9.34925
▁Din	-9.3521
▁Tu	-9.35831
3599	-9.36199
▁70	-9.36335
22.	-9.36462
▁xx	-9.36711
recharge	-9.37215
ై	-9.37314
▁Kurian	-9.37327
▁14-	-9.37384
.310.00	-9.37394
far	-9.3745
▁Ram	-9.37459
des	-9.37501
9165	-9.37518
ddh	-9.3755
▁valid	-9.37621
▁60	-9.3778
▁Bi	-9.38006
▁Nee	-9.38325
▁21-	-9.38363
591	-9.3862
▁Chad	-9.38718
▁Wali	-9.3879
ext	-9.38836
TH	-9.3897
▁21	-9.4009
▁Agarwal	-9.40184
▁Aurora	-9.40184
▁Chacko	-9.40184
▁Chakrabarti	-9.40184
▁Chaudhary	-9.40184
▁Chawla	-9.40184
▁Choudhary	-9.40184
▁Choudhury	-9.40184
▁Comar	-9.40184
▁Dhawan	-9.40184
▁Madan	-9.40184
▁Mangal	-9.40184
▁Sekhon	-9.40184
▁Subramanian	-9.40184
▁Uppal	-9.40184
▁Wagle	-9.40184
▁Garg	-9.40184
▁Soman	-9.40184
▁broker	-9.40184
▁Amble	-9.40184
▁Bhatnagar	-9.40185
▁Sahni	-9.40185
▁Golla	-9.40185
▁Gala	-9.40186
డే	-9.40196
▁Sampath	-9.40227
NSE	-9.40244
▁01-	-9.40283
▁Rene	-9.40299
bram	-9.40304
▁Borah	-9.40312
▁Bail	-9.4036
▁Sant	-9.40495
▁DP	-9.40846
▁Ina	-9.40957
▁Dutta	-9.4099
▁Dass	-9.41008
5.00	-9.41336
▁Andra	-9.41885
.85	-9.42136
▁u	-9.42136
▁Es	-9.42394
▁28	-9.42513
.69	-9.42627
ities	-9.42702
nge	-9.42832
▁Reddy	-9.43125
▁experience	-9.43125
▁పొందండి	-9.43125
▁ఇప్ప	-9.43126
▁Hotstar	-9.43136
▁Fund	-9.43153
VER	-9.43169
link	-9.43187
2.5	-9.43283
▁19-	-9.43344
▁22-	-9.43373
▁15-	-9.43534
able	-9.43598
▁Za	-9.44387
BL	-9.44437
▁Sen	-9.44626
to	-9.4466
▁Deep	-9.45578
సర	-9.46156
▁SECRET	-9.46156
▁exclu	-9.46156
▁ఉండండి	-9.46157
▁26-	-9.46241
▁Visit	-9.46299
▁Dri	-9.46388
hou	-9.46454
54.	-9.46864
ee	-9.47139
త	-9.4732
▁TO	-9.47634
.60	-9.4766
24.	-9.48183
▁number	-9.48667
▁+	-9.48952
▁priya	-9.48962
▁క్ల	-9.49297
12.	-9.49314
▁03-	-9.4941
ion	-9.49429
NS	-9.49666
▁exc	-9.50125
▁N	-9.50176
య	-9.50507
58.	-9.50764
nar	-9.5087
6.	-9.50885
rma	-9.51687
ject	-9.5187
▁0.	-9.51883
AD	-9.51911
▁279	-9.51922
29.	-9.52032
▁La	-9.52033
▁65	-9.52077
▁deepa	-9.52216
ika	-9.52236
▁start	-9.52367
▁Blue	-9.52507
▁Yadav	-9.52507
▁soon	-9.52507
▁even	-9.52515
▁Download	-9.52524
కు	-9.52529
▁04-	-9.52583
▁Best	-9.52603
▁Pharmacy	-9.52613
▁0	-9.52645
507	-9.52803
▁30-	-9.52811
Voice	-9.52816
priya	-9.52841
it	-9.52932
▁book	-9.52958
▁free	-9.52977
▁localit	-9.5301
▁Shra	-9.53039
▁IND	-9.53104
481	-9.5311
.62	-9.53168
40.00	-9.53502
▁arun	-9.54488
▁W	-9.54997
.00	-9.55027
95.	-9.55082
gan	-9.55156
▁App	-9.55309
▁Ali	-9.55344
/6/2024	-9.55429
▁53	-9.55524
238	-9.55787
▁JioFi	-9.55816
▁Acharya	-9.5584
▁Atwal	-9.5584
▁Bahl	-9.5584
▁Balakrishnan	-9.5584
▁Basak	-9.5584
▁Bhattacharyya	-9.5584
▁Bose	-9.5584
▁Chhabra	-9.5584
▁Desai	-9.5584
▁Dugal	-9.5584
▁Gandhi	-9.5584
▁Gopal	-9.5584
▁Kadakia	-9.5584
▁Kapoor	-9.5584
▁Khalsa	-9.5584
▁Khanna	-9.5584
▁Khurana	-9.5584
▁Korpal	-9.5584
▁Kothari	-9.5584
▁Maharaj	-9.5584
▁Savant	-9.5584
▁Saxena	-9.5584
▁Shukla	-9.5584
▁Sidhu	-9.5584
▁Subscribe	-9.5584
▁Talwar	-9.5584
▁Tella	-9.5584
▁Thakkar	-9.5584
▁Trivedi	-9.5584
▁Varghese	-9.5584
▁Varughese	-9.5584
▁నంబర్	-9.5584
▁Doctor	-9.5584
▁Karpe	-9.5584
▁Ramesh	-9.5584
▁Ratti	-9.5584
▁Bhakta	-9.5584
▁Mammen	-9.5584
▁Dyal	-9.55841
▁Arora	-9.55843
▁Vora	-9.55843
▁Sani	-9.55843
▁Bava	-9.55846
▁Sengupta	-9.55851
▁Gour	-9.55859
▁Srinivasan	-9.5586
▁Jani	-9.55865
NEY	-9.55894
▁Samra	-9.5592
▁Kakar	-9.55946
▁Baria	-9.55959
▁Chandran	-9.55962
▁11-	-9.55967
▁Karan	-9.55986
▁anjali	-9.55998
▁Kari	-9.56044
▁Lalla	-9.56298
477	-9.563
▁Balan	-9.56394
▁Toor	-9.56408
shya	-9.56441
▁64	-9.56453
apps	-9.56469
roject	-9.56484
▁Ved	-9.56695
▁Saha	-9.56753
▁Manna	-9.5687
375	-9.56938
▁pooja	-9.57083
528	-9.57198
tra	-9.57226
▁Pay	-9.5728
ce	-9.57294
▁Tak	-9.573
pally	-9.57412
97.	-9.57589
▁44	-9.57618
asha	-9.5762
▁Sachdeva	-9.57749
▁Sura	-9.57836
AI	-9.58324
62.	-9.59052
TECH	-9.59288
unzo	-9.59288
▁రోజుల	-9.59288
SHA	-9.59296
▁Wat	-9.59336
▁amit	-9.59358
▁Ind	-9.59385
▁MyJio	-9.59408
▁mobile	-9.59452
▁05	-9.59537
▁rohit	-9.59558
▁anita	-9.59558
▁67	-9.59714
▁REDDY	-9.5988
▁Day	-9.59946
MO	-9.60077
yak	-9.60372
▁48	-9.60647
me	-9.61413
19.	-9.61532
you	-9.62055
460	-9.62243
▁Mar	-9.62502
000	-9.62503
▁52	-9.62669
▁offers	-9.62756
416	-9.62827
▁గ	-9.62857
▁Bajaj	-9.6286
▁Zepto	-9.6286
▁disclose	-9.6286
▁wallet	-9.6286
▁order	-9.6286
లాగ	-9.6286
ర్ష	-9.62864
త్	-9.62891
▁Date	-9.62927
▁use	-9.63024
▁AMAZON	-9.63029
▁GE	-9.63114
▁07	-9.63151
▁manish	-9.6325
▁09	-9.63568
time	-9.63617
9579	-9.63639
400	-9.63689
▁Bali	-9.63825
ver	-9.63934
6919	-9.63961
26.	-9.65088
▁34	-9.65225
HDFCB	-9.65272
.2,	-9.65368
0467	-9.65734
245	-9.65877
PL	-9.65952
HK	-9.66039
▁participate	-9.66563
▁Received	-9.6657
డ్	-9.66596
▁07-06-25	-9.666
▁Statement	-9.6663
scheduled	-9.66656
▁due	-9.67085
▁priyanka	-9.67085
over	-9.67194
/06/25	-9.67283
▁Sub	-9.67293
డ	-9.67337
▁Chanda	-9.67341
day	-9.67706
▁2025	-9.67743
▁X	-9.67899
▁NE	-9.68086
▁LIMITED	-9.68252
025	-9.68395
heckout	-9.68495
30.	-9.6927
233	-9.6951
ity	-9.69629
▁87	-9.69866
▁g	-9.6994
iting	-9.70269
LY	-9.70358
▁Mand	-9.70373
▁కనెక్	-9.70409
7893213662	-9.70409
jiosaavn	-9.70409
▁ZE	-9.70463
▁14-06-25	-9.70481
.290.00	-9.70486
▁Hey	-9.7053
:00	-9.70549
▁Kiara	-9.70555
▁47	-9.70714
899	-9.7091
month	-9.71437
25.	-9.71469
40.	-9.716
bz	-9.71667
304	-9.71854
197	-9.71876
36.	-9.72136
▁Mo	-9.72544
11.	-9.72574
190	-9.72687
880	-9.72743
▁Sun	-9.72823
▁Mann	-9.7291
imu	-9.73605
▁TnC	-9.73808
సా	-9.73818
her	-9.73827
und	-9.73856
ation	-9.73885
844	-9.73918
▁Limit	-9.74287
▁Chandra	-9.74295
nk	-9.74329
▁ritu	-9.74409
▁Bahri	-9.74409
▁Bajwa	-9.74409
▁Batta	-9.74409
▁Bhagat	-9.74409
▁Bhavsar	-9.74409
▁Chaudhari	-9.74409
▁Chaudhry	-9.74409
▁Chaudhuri	-9.74409
▁Choudhry	-9.74409
▁Contractor	-9.74409
▁Deshpande	-9.74409
▁Dewan	-9.74409
▁Hayre	-9.74409
▁Hegde	-9.74409
▁Iyengar	-9.74409
▁Mahajan	-9.74409
▁Mahal	-9.74409
▁Ramachandran	-9.74409
▁Rastogi	-9.74409
▁Sahota	-9.74409
▁Sanghvi	-9.74409
▁Sehgal	-9.74409
▁Subramaniam	-9.74409
▁Yohannan	-9.74409
▁Datta	-9.74409
▁Ahuja	-9.7441
▁Lanka	-9.7441
▁Sood	-9.7441
▁Roy	-9.74411
▁Sinha	-9.74411
▁Mallick	-9.74411
▁Bhandari	-9.74413
▁Goel	-9.74417
▁Varma	-9.74417
▁Ramakrishnan	-9.74425
▁Dayal	-9.74425
▁sanjay	-9.74431
▁Dalal	-9.74438
▁Mander	-9.74438
▁Coursera	-9.7444
ocha	-9.74442
▁02-08-25	-9.74442
▁Due	-9.74448
▁21-06-25	-9.74455
▁Bhatt	-9.74468
▁shivani	-9.74479
▁Raman	-9.74499
438	-9.74501
▁Virk	-9.74509
▁Gara	-9.74527
lectricity	-9.74542
▁Kaul	-9.74579
▁Goda	-9.74583
▁Baral	-9.74592
▁prakash	-9.74724
▁Dora	-9.74754
▁visit	-9.74867
14.	-9.74934
▁₹1,	-9.75066
▁Dua	-9.75068
ies	-9.75292
▁10-	-9.75422
▁Lala	-9.75544
▁amazon	-9.75565
387	-9.75568
9.08	-9.75976
▁No	-9.76129
▁Ben	-9.76498
▁43	-9.76604
105	-9.76618
▁62	-9.76705
▁He	-9.77113
70.	-9.77203
599	-9.77328
▁Kara	-9.77516
113	-9.77591
912	-9.77698
.02	-9.77939
xx	-9.7795
UND	-9.78442
▁Ho	-9.78522
GROWW	-9.78576
▁Fresh	-9.78576
ువు	-9.78585
back	-9.78666
67.	-9.78678
▁75	-9.78749
▁dinesh	-9.79035
▁02	-9.79155
938	-9.79227
▁1800	-9.79568
ల	-9.79665
DHEERAJ	-9.79817
care	-9.79913
Bazaar	-9.79929
RE	-9.79975
2662	-9.80667
▁rajesh	-9.80668
▁#	-9.8067
832	-9.80914
2,2	-9.81083
▁29	-9.81169
611	-9.81277
NVE	-9.81561
▁am	-9.81859
808	-9.81893
haadi	-9.82043
264	-9.8235
▁IB	-9.82356
/3/2024	-9.8237
▁TRA	-9.82382
337	-9.82831
10.	-9.82849
బ	-9.82903
▁ప్ర	-9.82921
Cinema	-9.82924
▁device	-9.82924
▁feedback	-9.82924
▁ajay	-9.82924
choi	-9.82924
▁data	-9.82925
▁1800210	-9.82927
▁safe	-9.82934
▁CRED	-9.82941
hdfcb	-9.82947
▁28-06-25	-9.82976
XXXXXXXXXX	-9.82979
▁Udemy	-9.82997
▁Update	-9.83
▁Raju	-9.83066
▁Pharmeasy	-9.83078
▁mins	-9.8323
▁Spotify	-9.83465
▁rajiv	-9.8354
▁nitin	-9.83541
361	-9.83547
ollect	-9.83731
▁sunita	-9.83732
oul	-9.83745
59.	-9.83776
-25.	-9.83832
▁Shaadi	-9.83904
le	-9.8396
834	-9.84118
180	-9.84146
/3	-9.84634
dl	-9.84811
48.	-9.84903
.4,	-9.85169
17.	-9.85359
211	-9.85434
199	-9.85465
▁la	-9.85876
16.	-9.85893
▁calls	-9.86464
▁ex	-9.86581
▁an	-9.86583
▁only	-9.86644
79.	-9.86815
▁Book	-9.86901
▁Voice	-9.87032
887	-9.87069
,6,	-9.87109
raji	-9.87269
▁వివరాల	-9.87469
▁BHEEMA	-9.87469
▁Deliver	-9.87469
▁JioSaavn	-9.87469
▁MADDALA	-9.87469
▁Master	-9.87469
▁Live	-9.8747
▁SonyL	-9.8747
izza	-9.8747
▁చేయడానికి	-9.8747
▁OFFER	-9.87474
▁NOW	-9.87476
▁లే	-9.87479
FER	-9.87487
▁19-07-25	-9.87565
MAR	-9.87569
SIM	-9.87639
Nx	-9.87779
954	-9.87888
▁Days	-9.88267
▁vijay	-9.88267
830	-9.88403
fresh	-9.88664
▁ద	-9.88812
sg	-9.88953
.09	-9.88968
▁all	-9.89042
482	-9.89205
(	-9.89276
▁approved	-9.89293
302	-9.89423
309	-9.89493
▁ASH	-9.89688
53.	-9.89698
▁లో	-9.89895
42.	-9.89994
.462	-9.90044
▁38	-9.90345
940	-9.90362
▁sub	-9.90711
163	-9.90716
396	-9.90885
960	-9.9094
626	-9.90967
85.	-9.91027
ment	-9.91395
300	-9.91437
▁₹2,	-9.91631
▁neha	-9.91708
▁68	-9.91735
0.68	-9.91759
00.00	-9.91829
640	-9.91854
247	-9.92019
720	-9.92088
37.	-9.92131
467	-9.9218
▁LIMI	-9.92185
ontinue	-9.92196
3/06/2025	-9.9222
self	-9.92231
▁ramesh	-9.92231
5676766.	-9.92231
▁occur	-9.92231
▁help	-9.92231
▁Lite	-9.92231
▁clear	-9.92232
sancharsaathi	-9.92233
▁Sagar	-9.92234
▁rahul	-9.92235
▁Goibibo	-9.92238
▁Netmeds	-9.92238
▁appointment	-9.92246
Plan	-9.92248
▁05-07-25	-9.92265
618	-9.92314
ending	-9.92324
▁Hari	-9.92335
▁యాప్	-9.9246
▁Krishna	-9.92499
ald	-9.92581
561	-9.92936
281	-9.92995
▁per	-9.92996
583	-9.93026
365	-9.93072
619	-9.93097
▁2,	-9.93223
న్	-9.93306
987	-9.93368
▁Per	-9.93437
50.	-9.93752
992	-9.93894
▁11:	-9.93944
295	-9.93952
ND	-9.94013
440	-9.94018
339	-9.94052
75.	-9.94231
not	-9.94357
66.	-9.94407
▁08/06/2	-9.9445
▁42	-9.94516
▁69	-9.94598
28.	-9.94904
986	-9.95124
23.	-9.95132
296	-9.95204
/08/25	-9.95216
IS	-9.9522
778	-9.95374
ram	-9.95401
403	-9.95461
▁49	-9.95538
KC	-9.95654
137	-9.95687
573	-9.95745
Yl	-9.95773
▁Dutt	-9.95833
▁Lal	-9.96074
140	-9.96253
216	-9.96266
272	-9.96287
484	-9.96305
-03-25	-9.96444
721	-9.96446
232	-9.96548
▁JioTune	-9.96649
▁service	-9.96653
980	-9.96711
YA	-9.96771
57.	-9.96933
ember	-9.97109
age	-9.97168
▁UP	-9.9719
▁Sankar	-9.97215
▁Devi	-9.9722
simpli	-9.97231
roadband	-9.97231
▁Bhargava	-9.97231
▁Borde	-9.97231
▁Chahal	-9.97231
▁Chakraborty	-9.97231
▁Chatterjee	-9.97231
▁Cheema	-9.97231
▁Chokshi	-9.97231
▁Commissioner	-9.97231
▁Edwin	-9.97231
▁Kapadia	-9.97231
▁Khare	-9.97231
▁Khatri	-9.97231
▁Khosla	-9.97231
▁Krishnamurthy	-9.97231
▁Kuruvilla	-9.97231
▁Loke	-9.97231
▁MedPlus	-9.97231
▁Sabharwal	-9.97231
▁Sangha	-9.97231
▁Sastry	-9.97231
▁Shenoy	-9.97231
▁Sibal	-9.97231
▁Sundaram	-9.97231
▁Thakur	-9.97231
▁Viswanathan	-9.97231
▁Yogi	-9.97231
▁Basu	-9.97231
▁Loan	-9.97231
▁Sathe	-9.97231
▁Kashyap	-9.97231
ొ	-9.97232
▁Agate	-9.97232
▁Behl	-9.97232
eclined	-9.97232
▁Grover	-9.97233
▁Shere	-9.97233
▁Soni	-9.97233
▁Guha	-9.97234
▁Bains	-9.97234
▁Gole	-9.97235
▁Gade	-9.97236
TOSH	-9.97237
work	-9.97242
▁Wable	-9.97245
▁Kibe	-9.97246
▁loan	-9.97246
▁Kalla	-9.97247
▁Sale	-9.97251
▁Chander	-9.97252
▁Hrs	-9.97254
▁Chadha	-9.97271
▁Kale	-9.97272
▁Bhatti	-9.97308
▁Blinkit	-9.97311
▁23-08-25	-9.97322
▁Kant	-9.97331
649	-9.97334
▁Vai	-9.97344
▁Doshi	-9.97348
▁Sane	-9.97422
▁Chana	-9.9743
▁Mannan	-9.97474
▁Saraf	-9.97502
▁01/06/2025	-9.97572
▁Sunder	-9.97607
434	-9.97663
621	-9.97672
235	-9.97759
jr	-9.97821
424	-9.97872
380	-9.97917
▁Subway	-9.97948
▁36	-9.97986
▁Balay	-9.98018
.03	-9.98101
533	-9.98231
▁04/06/2	-9.98364
833	-9.98517
35.	-9.98856
▁ను	-9.99353
Ue	-9.99453
866	-9.99492
TB	-9.99674
ig	-9.99964
402	-10.0029
▁IST	-10.0041
437	-10.0062
est	-10.0081
136	-10.0082
nfo	-10.0083
▁one	-10.0084
LA	-10.0093
705	-10.0098
▁40	-10.012
344	-10.0141
▁vikas	-10.0145
513	-10.0161
▁tra	-10.0185
cure	-10.0201
▁Sah	-10.0214
Uk	-10.0217
158	-10.0219
▁+914035861882	-10.0237
1,8	-10.024
▁RedBus	-10.0249
▁cultpass	-10.0249
▁shweta	-10.0249
▁travel	-10.0249
▁18002101525	-10.0249
డానికి	-10.025
▁active	-10.025
▁better	-10.0251
▁OFF	-10.0251
ONY	-10.0252
▁Vedantu	-10.0253
MAY	-10.0255
▁25-08-25	-10.0265
ాన్	-10.0265
116	-10.0266
▁Rain	-10.0272
▁contact	-10.0275
4,1,	-10.0276
256	-10.0276
990	-10.0283
268	-10.0289
431	-10.0304
819	-10.0314
cust	-10.0323
▁Malkajgiri	-10.0325
▁water	-10.0325
739	-10.0327
▁921	-10.0353
230	-10.0366
▁thr	-10.0388
187	-10.0389
968	-10.0399
▁inter	-10.0409
305	-10.0436
▁66	-10.0448
▁Bir	-10.047
▁07/06/2	-10.0491
102	-10.0508
Amazon	-10.0509
286	-10.0524
▁One	-10.0533
760	-10.0543
▁sta	-10.0561
98.	-10.0565
.386	-10.0566
459	-10.0588
8.33	-10.0589
351	-10.0618
118	-10.0656
622	-10.0666
906	-10.0671
849	-10.0679
▁divya	-10.0694
405	-10.0695
.01	-10.0715
ted	-10.0746
tal	-10.0769
110	-10.0774
దా	-10.0791
avy	-10.0796
demy	-10.0797
510	-10.08
oursera	-10.0801
▁Insu	-10.0805
▁kavita	-10.0805
▁ELITE	-10.0805
▁Venkatesh	-10.0805
▁Life	-10.0805
▁Saini	-10.0805
▁authentication	-10.0805
ి	-10.0805
▁త్వరలో	-10.0805
cros	-10.0805
▁Wynk	-10.0806
afe	-10.0806
BOX	-10.0806
▁03/06/2025	-10.0806
▁₹3,7	-10.0809
ffici	-10.081
▁Data	-10.081
▁20/08/2025	-10.0811
▁Ph	-10.0812
▁17/07/2025	-10.0813
395	-10.0813
▁Unacademy	-10.0813
ium	-10.0814
▁Validity	-10.0814
330	-10.0815
▁20-07-25	-10.0815
▁Upgrade	-10.0815
327	-10.0818
▁5994	-10.0825
uid	-10.0828
.716	-10.083
ship	-10.0831
▁INDmoney	-10.0849
566	-10.088
ret	-10.088
002	-10.089
ll	-10.0892
ate	-10.0903
pple	-10.0906
98.24	-10.0907
లో	-10.0939
▁po	-10.0941
159	-10.0955
562	-10.0955
149	-10.0974
ంగ	-10.0982
753	-10.0988
72.	-10.1002
930	-10.1023
4,6	-10.1026
▁37	-10.1029
01.	-10.1039
1.01	-10.1048
250	-10.1054
152	-10.1065
KR	-10.1087
Apr	-10.1089
404	-10.1091
8.91	-10.1119
821	-10.1131
267	-10.1137
601	-10.1139
072	-10.1145
21.	-10.1146
406	-10.116
200	-10.1163
RS	-10.1181
64.	-10.1185
AN	-10.1185
▁₹1,5	-10.1188
774	-10.1199
3.56	-10.12
419	-10.1202
886	-10.1215
▁23/08/2	-10.1251
641	-10.1272
4.00	-10.1282
TV	-10.1301
lues	-10.1351
pl	-10.1353
av	-10.1366
harmeasy	-10.1372
496	-10.1373
▁LIV	-10.1389
ffic	-10.139
▁BookMyShow	-10.1393
▁Congrats	-10.1393
▁Joshi	-10.1393
▁Lenskart	-10.1393
▁puja	-10.1393
know	-10.1393
▁Tech	-10.1393
▁ORR	-10.1393
▁Genera	-10.1394
▁that	-10.1394
▁kavya	-10.1394
▁monika	-10.1394
manage	-10.14
ugh	-10.1401
▁06/07/2025	-10.1403
ATE	-10.1403
▁04-06-25	-10.1404
▁+91	-10.1405
▁Raj	-10.1406
eep	-10.1407
▁med	-10.141
▁10/07/2025	-10.1415
ishi	-10.142
646	-10.1421
858	-10.1421
ud	-10.143
890	-10.1432
▁rekha	-10.144
▁Starbucks	-10.1444
▁24/06/2	-10.1468
692	-10.149
IN	-10.1492
With	-10.1493
/07/25	-10.1508
▁member	-10.1516
▁12:	-10.152
541	-10.1528
▁19/06/2	-10.1549
220	-10.1562
716	-10.1579
377	-10.1624
ర	-10.1663
658	-10.1701
▁21/06/2	-10.1703
191	-10.1705
372	-10.1711
▁57	-10.1714
▁Apr	-10.1727
299	-10.1727
▁553	-10.1728
78.	-10.1748
/4/2024	-10.1753
803	-10.1755
COM	-10.177
APO	-10.1782
107	-10.1795
▁check	-10.1796
HO	-10.1804
985	-10.1823
am	-10.1827
602	-10.1845
231	-10.1855
127	-10.1858
379	-10.1863
750	-10.1864
31.	-10.1872
▁sec	-10.1896
pb	-10.1899
kr	-10.1901
00000	-10.1913
412	-10.1918
XX	-10.1945
NH	-10.1967
so	-10.1967
909	-10.1986
harmacy	-10.1998
▁33	-10.2002
▁receive	-10.2007
nacademy	-10.2009
BBAN	-10.201
260	-10.2015
etmeds	-10.2018
survey	-10.2018
▁Benefits	-10.2018
▁Enrol	-10.2018
▁Extension	-10.2018
▁MakeMyTrip	-10.2018
▁password	-10.2018
▁world	-10.2018
▁txn	-10.2018
ykaa	-10.2019
▁continue	-10.2023
ubscription	-10.2023
▁TRU	-10.2024
▁09-08-25	-10.2024
▁21-07-25	-10.2025
▁06/08/2025	-10.2025
▁18/07/2025	-10.2025
mcd	-10.2026
.448	-10.203
▁28/07/2025	-10.2031
▁29/07/2025	-10.2031
ERT	-10.2032
ual	-10.2033
370	-10.2043
026	-10.2046
▁ankit	-10.2049
▁verify	-10.2049
274	-10.2052
▁59	-10.2056
▁10-08-25	-10.2068
085	-10.2069
MA	-10.207
▁Fue	-10.2074
▁HOT	-10.2077
▁SMS	-10.2082
end	-10.2097
▁UN	-10.2107
▁electricity	-10.2109
4,8	-10.2109
292	-10.2126
▁Apps	-10.213
if	-10.2133
=1	-10.2136
2.59	-10.2155
244	-10.2203
▁35	-10.222
▁ON	-10.2241
89.	-10.2267
188	-10.2278
▁go	-10.2282
3,6	-10.2298
ME	-10.2308
888	-10.2327
.314	-10.2333
20.00	-10.2338
▁RE	-10.235
540	-10.2353
52.	-10.2356
NO	-10.2362
▁**39	-10.2382
LIMITED	-10.2384
341	-10.2397
INR	-10.2405
306	-10.2405
697	-10.2408
లు	-10.2412
▁SHAR	-10.2417
321	-10.2429
ంది	-10.2447
_2	-10.2453
527	-10.2466
476	-10.2492
664	-10.2492
369	-10.2498
▁re	-10.2521
252	-10.2539
▁Chand	-10.254
427	-10.2565
1.15	-10.2567
4.74	-10.2572
LC	-10.2582
▁Inter	-10.2588
5,	-10.2592
3,1	-10.2604
5.32	-10.2606
shit	-10.2625
3,0	-10.2641
99.	-10.2642
376	-10.2649
160	-10.2651
pm	-10.266
185	-10.2662
rime	-10.2665
▁Ratta	-10.267
759	-10.267
▁63	-10.2672
▁propert	-10.2672
got	-10.2674
edantu	-10.268
▁Seth	-10.2681
etflix	-10.2684
lang	-10.2685
zepto	-10.2685
ompany	-10.2685
మై	-10.2685
▁Aggarwal	-10.2685
▁Balasubramanian	-10.2685
▁Bassi	-10.2685
▁BigBasket	-10.2685
▁BlaBlaCar	-10.2685
▁Boase	-10.2685
▁Brahmbhatt	-10.2685
▁Butala	-10.2685
▁Chowdhury	-10.2685
▁Dhaliwal	-10.2685
▁Dhillon	-10.2685
▁Divan	-10.2685
▁Gokhale	-10.2685
▁Goyal	-10.2685
▁Gulati	-10.2685
▁Issac	-10.2685
▁Kalita	-10.2685
▁Karnik	-10.2685
▁Kulkarni	-10.2685
▁MEDICA	-10.2685
▁Majumdar	-10.2685
▁Ramanathan	-10.2685
▁Ranganathan	-10.2685
▁Shroff	-10.2685
▁Solanki	-10.2685
▁TODAY	-10.2685
▁Tandon	-10.2685
▁Taneja	-10.2685
▁Thaker	-10.2685
▁Thaman	-10.2685
▁Tiwari	-10.2685
▁Tripathi	-10.2685
▁Vohra	-10.2685
▁Anne	-10.2685
▁Hayer	-10.2685
▁Hospitals	-10.2685
▁NoBroker	-10.2685
bhim	-10.2685
▁Bumb	-10.2685
▁Magar	-10.2685
▁Bawa	-10.2685
▁Sharaf	-10.2685
▁Barman	-10.2685
▁list	-10.2685
▁Deo	-10.2685
▁congestion	-10.2685
▁reach	-10.2685
▁Kanda	-10.2685
ివే	-10.2685
▁Price	-10.2685
▁Vala	-10.2685
▁Dey	-10.2685
▁Bhasin	-10.2685
▁current	-10.2685
▁Vyas	-10.2685
ept	-10.2685
room	-10.2686
▁Grofers	-10.2686
▁Brar	-10.2686
▁Bhatia	-10.2686
▁Varty	-10.2686
చేసి	-10.2687
▁benefits	-10.2687
▁Sankaran	-10.2687
▁Kade	-10.2687
▁Sarma	-10.2688
▁Bera	-10.2688
▁Lata	-10.2689
▁Rege	-10.2689
▁Shetty	-10.2689
▁01/07/2025	-10.2689
నే	-10.269
▁41	-10.269
▁Sethi	-10.269
▁Tank	-10.269
▁11/08/2025	-10.269
▁Singhal	-10.2692
▁Rapido	-10.2693
.80.00	-10.2696
.2349.	-10.2696
▁26-08-25	-10.2697
▁Dave	-10.2698
show	-10.2699
▁Rattan	-10.27
▁12-07-25	-10.2703
▁22-06-25	-10.2706
▁Kumer	-10.2708
.4779.	-10.2709
▁195	-10.2714
ution	-10.2715
▁31-	-10.2717
acl	-10.2722
362	-10.273
▁02/06/2025	-10.2731
▁PAI	-10.2731
▁Dubey	-10.2733
ular	-10.2734
▁Bhat	-10.2737
▁meera	-10.2739
STAR	-10.2745
HDFC	-10.2751
▁Dash	-10.2757
751	-10.2763
▁services	-10.2764
164	-10.2767
.587	-10.2769
▁28/06/2	-10.2774
39.	-10.2781
▁ఉచిత	-10.2782
sree	-10.2795
ncer	-10.28
ubway	-10.2805
974	-10.282
▁KYC	-10.2845
538	-10.2854
3.41	-10.2861
▁**28	-10.2883
WO	-10.289
957	-10.2894
te	-10.2914
రు	-10.2918
312	-10.2918
▁ab	-10.2925
100.00	-10.2942
463	-10.2954
▁store	-10.2958
634	-10.2958
234	-10.2969
ome	-10.2974
2025	-10.2988
▁**57	-10.3023
▁984	-10.3039
417	-10.3042
961	-10.3045
1,7	-10.307
JIO	-10.3075
AL	-10.3085
32.	-10.3092
3,8	-10.3106
▁h	-10.3106
▁31/07/2	-10.3106
May	-10.311
▁al	-10.3125
▁ask	-10.3127
.991	-10.3127
.1734.	-10.3131
OW	-10.3131
676	-10.3143
we	-10.316
241	-10.3166
364	-10.3177
94.	-10.3181
▁lo	-10.3197
445	-10.3213
BR	-10.3232
.921	-10.3234
ను	-10.326
656	-10.3267
▁56	-10.3272
937	-10.3294
170	-10.3301
129	-10.3302
▁suresh	-10.3335
1.00	-10.3338
HA	-10.3351
▁**70	-10.3358
NK	-10.3369
50.00	-10.3378
87.	-10.338
142	-10.339
BHAV	-10.3396
ersonal	-10.3398
▁30/06/2025	-10.3399
▁FUELS	-10.3399
▁Register	-10.3399
▁Samsung	-10.3399
▁suit	-10.3399
nobr	-10.3399
▁recent	-10.3399
▁Care	-10.3399
▁Like	-10.34
▁Int	-10.3401
▁Free	-10.3402
▁29-07-25	-10.3404
7.42	-10.3405
▁07-07-25	-10.3405
▁EMI	-10.3405
▁21-08-25	-10.3408
▁26-07-25	-10.3408
▁17/08/2025	-10.3409
▁Toppr	-10.341
588	-10.3411
0,000.00	-10.3412
▁Telangana	-10.3412
▁13-07-25	-10.3413
3,7,	-10.3413
▁pre	-10.3413
.150.00	-10.3417
▁30-06-25	-10.342
▁24/08/2	-10.3426
534	-10.3427
BBA	-10.3428
wards	-10.3429
4,9,	-10.343
ALAX	-10.3432
PA	-10.3432
▁Sri	-10.3432
▁CARD	-10.3434
392	-10.3435
▁Apartments	-10.344
leb	-10.3441
949	-10.3441
▁sto	-10.3448
Re	-10.3453
▁Jan	-10.3459
575	-10.3461
442	-10.3469
▁**32	-10.347
▁**43	-10.347
▁JioTunes	-10.3484
289	-10.3484
684	-10.3489
1,5	-10.3496
car	-10.3505
100	-10.3516
do	-10.3523
418	-10.3546
6.74	-10.3552
ula	-10.3554
▁100	-10.3554
115	-10.356
▁Fin	-10.3568
817	-10.3571
/2025	-10.3587
pt	-10.3591
88.	-10.3599
357	-10.3601
EZ	-10.361
▁IN	-10.3614
▁Travels	-10.3616
NE	-10.3635
311	-10.3651
5579	-10.3663
PP	-10.3664
▁**46	-10.3672
▁07/07/2	-10.3672
464	-10.3675
CE	-10.3678
▁Go	-10.3688
048	-10.3693
▁21/08/2	-10.3726
▁999	-10.373
▁**37	-10.3731
▁02/08/2	-10.3737
fd	-10.3752
FL	-10.3759
▁**95	-10.376
HAM	-10.377
663	-10.3773
200.00	-10.3784
7865	-10.3788
PB	-10.3789
777	-10.3794
715	-10.3802
TO	-10.3805
5.93	-10.3809
▁**98	-10.3814
EST	-10.3828
210	-10.3851
▁hea	-10.3852
.360	-10.3855
approved	-10.3866
.1,1	-10.3869
328	-10.3871
store	-10.3878
8.00	-10.3882
7343	-10.389
▁ల	-10.3894
823	-10.3904
645	-10.3905
▁61	-10.3906
511	-10.391
es	-10.3916
389	-10.3983
378	-10.4012
ో	-10.4027
ut	-10.4028
/?	-10.4045
907	-10.4046
20.	-10.4055
497	-10.4069
potify	-10.4072
UD	-10.4087
525	-10.41
889	-10.4108
▁limit	-10.4108
CA	-10.4114
/11/2024	-10.4116
145	-10.4128
3,3,	-10.4137
▁BHA	-10.4149
851	-10.4149
▁₹4,1	-10.415
.899	-10.4159
oto	-10.4165
ష	-10.4166
njoy	-10.4168
GHMC	-10.4168
ియో	-10.4168
▁26/06/2025	-10.4168
▁VENTU	-10.4168
▁ముగియనున్నది	-10.4168
▁renew	-10.4168
▁అను	-10.4168
offee	-10.4168
▁Time	-10.4168
▁bharath	-10.4168
▁LLP	-10.4171
▁BigBazaar	-10.4171
ew	-10.4172
▁mohan	-10.4174
▁09-07-25	-10.4174
▁₹4,7	-10.4175
▁07-08-25	-10.4177
▁08-07-25	-10.4177
▁27/08/2025	-10.4177
▁11-07-25	-10.4179
.580.00	-10.4179
098	-10.418
▁rewards	-10.4181
IX	-10.4185
▁30-07-25	-10.4185
▁25/07/2	-10.4189
▁14/06/2025	-10.4192
/6	-10.4193
▁17/06/2025	-10.4193
▁11/06/2025	-10.4193
ynk	-10.4194
▁New	-10.4197
68.	-10.4198
▁551	-10.42
▁15-06-25	-10.4205
2,1	-10.4215
▁1991	-10.422
▁**44	-10.4221
091	-10.4227
586	-10.4228
▁**84	-10.423
00004	-10.4232
▁**66	-10.4234
▁v	-10.4237
.116	-10.4237
▁₹3,3	-10.4242
▁**90	-10.4248
.398	-10.4259
take	-10.4274
2.68	-10.4276
354	-10.4281
690	-10.4289
sbz	-10.4289
tho	-10.43
avoid	-10.4302
▁le	-10.4305
.565	-10.4321
1.62	-10.4332
637	-10.4332
▁successfully	-10.4334
▁TI	-10.4337
UJ	-10.4337
Share	-10.4339
704	-10.4341
ls	-10.4358
594	-10.4361
▁Mi	-10.4367
▁reliance	-10.4383
125	-10.4388
995	-10.4394
.929	-10.4409
▁pay	-10.4416
▁73	-10.4455
TE	-10.4458
MK	-10.4475
END	-10.4482
141	-10.4482
410	-10.4485
/12/2024	-10.4492
IT	-10.4497
.484	-10.4506
933	-10.4506
331	-10.4511
aram	-10.4519
280	-10.4535
106	-10.4556
835	-10.4557
▁₹1,8	-10.4561
PRI	-10.4561
▁COM	-10.4563
466	-10.4585
▁08/07/2	-10.4595
114	-10.4643
9.99	-10.4651
isa	-10.4681
bazaar	-10.4685
apollo	-10.4692
IL	-10.4697
స్తు	-10.4702
MB	-10.4702
531	-10.472
.447	-10.4758
485	-10.4772
543	-10.4778
.2,0,	-10.4782
Th	-10.4794
696	-10.4795
▁80	-10.4803
TY	-10.4805
865	-10.4818
896	-10.4819
plans	-10.4831
void	-10.4858
8.83	-10.4869
▁03/08/2	-10.4886
▁we	-10.4889
▁GU	-10.4892
mist	-10.4909
oft	-10.4911
nd	-10.4922
sed	-10.4922
Ib	-10.4928
1,3	-10.4946
317	-10.4962
AG	-10.4963
▁16/08/2	-10.4969
▁**20	-10.497
9.66	-10.4974
ార	-10.4989
▁ne	-10.4992
3.87	-10.5
source	-10.5001
▁sandeep	-10.5002
రత	-10.5002
GetMyJio	-10.5002
▁22/06/2025	-10.5002
▁IMPORTANT	-10.5002
▁Manage	-10.5002
▁Nagamani	-10.5002
▁PayZapp	-10.5002
▁Titan	-10.5002
▁approval	-10.5002
▁follow	-10.5002
▁initiated	-10.5002
.1178.82	-10.5002
▁Nagar	-10.5002
▁TEJA	-10.5002
▁case	-10.5002
▁hours	-10.5002
▁Bell	-10.5002
▁కాల్స్	-10.5003
CITI	-10.5003
క్క	-10.5003
▁rain	-10.5005
▁done	-10.5005
JUL	-10.5005
▁01/08/2025	-10.5007
▁late	-10.5008
*8	-10.5008
3.01	-10.5009
rga	-10.5012
▁28-08-25	-10.5012
▁jo	-10.5017
▁₹4,6	-10.5017
▁27/07/2025	-10.5018
mandate	-10.5018
▁14-08-25	-10.5018
▁Amt	-10.5021
▁22-07-25	-10.5022
పు	-10.5022
diagnostic	-10.5025
▁11/07/2025	-10.5028
6.00	-10.5039
▁secur	-10.504
8.57	-10.5063
161	-10.5079
23.60	-10.5081
839	-10.5085
▁Trend	-10.5086
297	-10.5087
4.63	-10.5089
.807	-10.5096
319	-10.5096
▁View	-10.5101
▁29/06/2	-10.5104
▁Th	-10.5116
631	-10.5119
▁Du	-10.5169
620	-10.517
764	-10.5171
▁555	-10.5175
ance	-10.5181
and	-10.5184
.3747	-10.5184
9.94	-10.5185
▁₹3,9	-10.5192
lt	-10.5193
▁online	-10.5194
05.	-10.5196
OP	-10.5208
GL	-10.5218
7183	-10.5232
▁**73	-10.5238
▁mo	-10.5244
4267	-10.5252
2302	-10.5253
ZD	-10.5258
8.22	-10.5268
1,2	-10.5272
800	-10.5285
▁**36	-10.5286
4,0	-10.5296
258	-10.5313
▁**62	-10.5317
▁**82	-10.5327
388	-10.5327
024	-10.5333
ial	-10.5352
284	-10.5352
209	-10.5353
▁₹3,5	-10.5359
2,9,	-10.5373
onal	-10.5375
4.85	-10.5382
▁May	-10.5427
4.42	-10.5433
079	-10.5433
▁Eas	-10.5438
261	-10.5442
010	-10.5462
err	-10.547
ant	-10.5475
894	-10.5478
8.39	-10.5479
067	-10.549
.2,3,	-10.5495
1,1	-10.5497
.719	-10.5499
081	-10.5504
▁Min	-10.5507
7.00	-10.5507
RT	-10.553
2.71	-10.5537
735	-10.5542
3.89	-10.5543
202	-10.5544
▁**50	-10.5544
▁26/08/2	-10.5549
▁27/06/2	-10.5551
TN	-10.5562
▁**2	-10.5576
▁**53	-10.559
Mar	-10.5602
629	-10.5607
.4,8	-10.5615
5.97	-10.5622
▁Rama	-10.5623
.282	-10.5627
953	-10.5641
342.	-10.5658
ALA	-10.5672
612	-10.5673
▁545	-10.5679
.630	-10.5697
▁₹1,3	-10.5702
▁nisha	-10.5714
▁**99	-10.5716
358	-10.5717
.146	-10.5718
LI	-10.5746
aving	-10.5762
AY	-10.5776
6.24	-10.5777
492	-10.5779
aga	-10.5782
246	-10.5784
▁care	-10.5788
▁In	-10.5792
.156	-10.5803
all	-10.5824
nter	-10.5829
▁515	-10.5834
.1,9	-10.5837
.893	-10.584
▁₹4,8	-10.586
▁₹3,4	-10.5861
▁**80	-10.5868
.151	-10.5873
kt	-10.5876
ER	-10.5881
▁జ	-10.5886
7549	-10.5887
▁**24	-10.5898
linkit	-10.5899
ppr	-10.5899
▁₹4,5	-10.5901
2.45	-10.5904
gestion	-10.5907
sug	-10.5908
▁₹5,	-10.5909
oibibo	-10.591
▁3/8/2024	-10.5911
▁Club	-10.5911
▁Power	-10.5911
▁customer	-10.5911
▁queries	-10.5911
▁unavailable	-10.5911
▁మా	-10.5911
పోర్ట	-10.5911
icici	-10.5911
▁Hello	-10.5911
▁Join	-10.5911
▁choos	-10.5911
CHER	-10.5911
▁name	-10.5911
▁KFC	-10.5911
▁Feb	-10.5911
▁Buy	-10.5911
umula	-10.5912
కో	-10.5912
డండి	-10.5913
.199.00	-10.5914
847	-10.5914
▁Mandal	-10.5914
ులు	-10.5916
▁02-07-25	-10.5917
▁14/08/2025	-10.5919
▁**91	-10.5919
▁28-07-25	-10.5919
pur	-10.5919
▁19/08/2025	-10.5923
ury	-10.5923
▁comp	-10.5924
▁27-07-25	-10.5928
▁23-06-25	-10.5928
▁16-07-25	-10.5928
▁26/07/2025	-10.5929
▁25-07-25	-10.5931
▁15/07/2025	-10.5932
▁ski	-10.5934
23236	-10.5934
020	-10.5934
▁san	-10.5936
036.87	-10.594
shkuma	-10.5942
▁PIN	-10.5946
335	-10.5947
.687	-10.5947
WA	-10.5948
4,2	-10.5949
▁04/08/2025	-10.5955
▁Lad	-10.5955
▁05/07/2025	-10.5955
520	-10.5956
TAN	-10.5965
▁₹4,8,	-10.5969
▁09/08/2025	-10.5989
.444	-10.5995
11.9	-10.6001
ux	-10.6009
.265	-10.6018
▁**38	-10.6018
4818	-10.602
▁**83	-10.6025
▁VA	-10.6031
▁view	-10.604
▁09/06/2	-10.6046
may	-10.6053
▁shop	-10.6077
▁VEMULA	-10.6077
9507	-10.6088
VAN	-10.6097
im	-10.6099
sure	-10.6112
204	-10.6119
ARUN	-10.612
174	-10.6122
SN	-10.6129
8609	-10.6138
AC	-10.6146
ED	-10.615
8617	-10.6151
kV	-10.6157
▁Laksh	-10.6159
ING	-10.6159
8.17	-10.6161
7025	-10.6165
Flights	-10.6166
165	-10.6171
221	-10.6173
▁web	-10.6178
▁Nara	-10.619
▁02/07/2	-10.6203
3.91	-10.6209
DW	-10.6229
JA	-10.6236
▁09/07/2	-10.6249
584	-10.6258
▁**96	-10.6259
▁apollo	-10.6262
▁**72	-10.6268
730	-10.6292
.661	-10.6304
2,8,	-10.6305
843	-10.6308
7775	-10.6315
38.1	-10.6323
CL	-10.6328
NQ	-10.633
743	-10.6338
6868	-10.6351
0.63	-10.6357
.4,3,	-10.636
▁exp	-10.6379
973	-10.639
.611	-10.6395
.1,6	-10.6419
DE	-10.6421
4.83	-10.6423
723	-10.6436
roperty	-10.644
7103	-10.6444
060	-10.6451
▁sa	-10.6454
.997	-10.6462
OUR	-10.6468
6.56	-10.6469
2192	-10.648
▁min	-10.648
6438	-10.6488
5465	-10.6505
426	-10.6507
MW	-10.6509
1074	-10.6514
▁BA	-10.6536
9459	-10.6554
471	-10.6594
Simplilearn	-10.6597
772	-10.6608
178	-10.6608
▁DHEERAJ	-10.6611
సం	-10.6612
inter	-10.6613
.556	-10.6628
755	-10.6629
Pay	-10.6632
587	-10.6648
OA	-10.6655
ITN	-10.6665
pay	-10.6666
FV	-10.6672
1.29	-10.6676
.988	-10.669
7631	-10.6716
sy	-10.6732
▁**47	-10.6741
▁**65	-10.6741
TM	-10.6746
9.00	-10.6759
▁200	-10.6759
RO	-10.6773
8171	-10.6779
nt	-10.6781
421	-10.6785
627	-10.6785
7129	-10.679
▁Lall	-10.6798
1,0	-10.6801
▁16/07/2	-10.6803
.726	-10.6811
▁SU	-10.6813
nand	-10.6817
7519	-10.6822
MI	-10.6826
47.0	-10.6832
AB	-10.6834
.481	-10.684
875	-10.6847
▁route	-10.6847
1698	-10.6858
070	-10.686
▁Apartment	-10.6863
MR	-10.6863
▁506	-10.687
▁చేస	-10.6874
class	-10.6876
రక్షి	-10.6884
5.92	-10.6887
162	-10.6891
▁సు	-10.6894
▁Zacharia	-10.6899
.452	-10.6899
adi	-10.6905
aro	-10.6907
ack	-10.6908
dded	-10.6908
2,9	-10.691
rofers	-10.691
JioFiberRecharge	-10.6911
వచ్చ	-10.6911
ిప్రాయ	-10.6911
▁10/06/2025	-10.6911
▁23/8/2024	-10.6911
▁Agrawal	-10.6911
▁Banerjee	-10.6911
▁Bansal	-10.6911
▁Chauhan	-10.6911
▁Cherian	-10.6911
▁Chopra	-10.6911
▁Deshmukh	-10.6911
▁Dixit	-10.6911
▁Ganguly	-10.6911
▁Garde	-10.6911
▁Ghose	-10.6911
▁Ghosh	-10.6911
▁Goswami	-10.6911
▁Grewal	-10.6911
▁Johal	-10.6911
▁Kamdar	-10.6911
▁Kannan	-10.6911
▁Kohli	-10.6911
▁Loyal	-10.6911
▁Password	-10.6911
▁Randhawa	-10.6911
▁SHIVA	-10.6911
▁Seshadri	-10.6911
▁Sridhar	-10.6911
▁Swamy	-10.6911
▁Varkey	-10.6911
▁Venkataraman	-10.6911
▁WORLD	-10.6911
▁Wadhwa	-10.6911
▁Wason	-10.6911
▁partner	-10.6911
▁reasons	-10.6911
▁register	-10.6911
▁ముగిసి	-10.6911
▁మే	-10.6911
▁వర్తిస్తాయి	-10.6911
DUvfE	-10.6911
labl	-10.6911
▁Babu	-10.6911
▁Bandi	-10.6911
▁Sandal	-10.6911
▁Vaidya	-10.6911
▁మొ	-10.6911
▁Konda	-10.6911
▁phone	-10.6911
iotune	-10.6911
▁Shanker	-10.6911
▁Sheth	-10.6911
▁Sarkar	-10.6911
▁Handa	-10.6911
▁week	-10.6911
▁Borra	-10.6911
WARD	-10.6911
▁8977701278@	-10.6911
▁Park	-10.6911
▁Hotel	-10.6911
▁Gera	-10.6911
▁Kunda	-10.6911
KHIL	-10.6911
▁profile	-10.6911
క్ట	-10.6911
▁information	-10.6911
▁Apte	-10.6911
▁sachin	-10.6911
▁near	-10.6912
▁Dani	-10.6912
▁Sarin	-10.6912
లి	-10.6912
▁Gaba	-10.6912
▁delivered	-10.6913
8495	-10.6914
▁Kaur	-10.6915
▁91	-10.6915
▁Bobal	-10.6915
▁Sule	-10.6916
uture	-10.6916
.6956.	-10.6917
▁Sem	-10.6917
▁Learning	-10.6917
▁Rajagopalan	-10.6918
▁Centre	-10.6918
▁29-06-25	-10.692
url	-10.692
▁14/07/2025	-10.692
▁post	-10.692
▁05-06-25	-10.6921
▁10/4/2024	-10.6922
▁activated	-10.6922
▁LIMIT	-10.6922
▁Hora	-10.6923
▁01-06-25	-10.6924
.6705.	-10.6925
.6072.	-10.6925
▁08-06-25	-10.6926
.9428.	-10.6926
.4964.8	-10.6926
.9896.	-10.6926
.7569.	-10.6927
▁05-08-25	-10.6928
.271	-10.6928
▁12:00	-10.693
ON	-10.693
.8731.	-10.693
.3071.	-10.6931
.2006.	-10.6931
.1091.	-10.6931
.4579.	-10.6931
.2746.	-10.6931
▁03-06-25	-10.6932
.1309.	-10.6934
.8666.	-10.6934
.6679.	-10.6934
.7340.	-10.6934
.1883.	-10.6934
▁18-06-25	-10.6935
▁06-06-25	-10.6935
▁PAY	-10.6935
.1680.	-10.6937
▁06/06/2025	-10.6938
.5599.2	-10.6939
▁₹3,8,	-10.6939
.7014.	-10.6939
.2471.	-10.6941
.330.00	-10.6943
.3454.	-10.6944
.2581.	-10.6945
.7277.	-10.6945
▁10/08/2025	-10.6947
dity	-10.6948
ri	-10.6949
YE	-10.695
65.26	-10.6951
958	-10.6952
.4141.	-10.6953
▁21/07/2025	-10.696
.1000.	-10.6965
177	-10.6976
▁Shah	-10.6976
841	-10.6981
▁12/07/2025	-10.6982
▁se	-10.7001
ical	-10.7005
▁Saran	-10.7007
▁vide	-10.7018
hat	-10.7021
FT	-10.7028
▁Rout	-10.7031
9037	-10.7032
736	-10.7051
*9	-10.7072
4.23	-10.7073
▁Kind	-10.7073
.3,8	-10.7077
.8273.	-10.7077
ELI	-10.7082
▁TRAI	-10.709
▁Ray	-10.7104
9.77	-10.7104
288.	-10.7106
.192	-10.7106
.320	-10.7111
8182	-10.7116
.495	-10.7117
HAR	-10.7124
▁Pol	-10.7125
og	-10.7135
▁area	-10.7147
0.21	-10.7149
7.39	-10.7154
529	-10.7171
▁de	-10.7175
rup	-10.719
EN	-10.7202
up	-10.7202
60.00	-10.7202
5588	-10.7217
▁**51	-10.7224
539	-10.7234
6131	-10.7236
▁**15	-10.7237
1,6	-10.7258
.2,3	-10.7263
▁**45	-10.7265
3.53	-10.7279
▁**19	-10.7285
3095	-10.7295
de	-10.7331
▁**64	-10.7332
1.02	-10.7354
ik	-10.7354
cto	-10.736
3169	-10.7363
.123	-10.7363
రా	-10.7373
▁918	-10.7373
AM	-10.7374
ep	-10.7382
ur	-10.7411
853	-10.7415
7992	-10.7418
8.41	-10.7422
6748	-10.7437
.7589.4	-10.7445
ro	-10.745
0.16	-10.7456
▁Chada	-10.7457
AIL	-10.7463
ave	-10.7464
.552.	-10.747
9.04	-10.7487
110.00	-10.7488
CC	-10.7489
▁**63	-10.7498
▁₹1,6	-10.7502
099	-10.7507
7.38	-10.7515
▁Sama	-10.753
.500	-10.7535
.968	-10.755
▁Vir	-10.7551
3,2,	-10.7556
ealth	-10.7575
▁Ajio	-10.7576
ty	-10.758
GA	-10.7606
6043	-10.7606
Cs	-10.7608
788	-10.7627
▁04/07/2	-10.763
5437	-10.7645
▁**27	-10.765
120.00	-10.7656
%2	-10.766
▁**23	-10.7669
▁**41	-10.7687
928	-10.7688
▁₹3,1,	-10.7695
9.16	-10.7696
6290	-10.7697
▁Sarna	-10.77
ద	-10.7716
7466	-10.7718
details	-10.7725
http	-10.7726
Card	-10.7726
728	-10.7758
9666	-10.776
.3,7	-10.776
139.	-10.7811
.502	-10.7819
▁sim	-10.7827
7121	-10.7836
991	-10.7842
391	-10.7857
GO	-10.7868
▁₹2,9	-10.7881
▁NI	-10.7924
tarbucks	-10.7925
.1,7	-10.7933
6556	-10.7939
▁bigba	-10.794
PN	-10.7942
9825	-10.7946
.167	-10.7947
6103	-10.795
.200	-10.7953
/9/2024	-10.7957
314	-10.7965
▁₹3,6	-10.7967
▁₹7,	-10.7968
480	-10.7977
7.96	-10.7983
▁₹4,3	-10.7988
517	-10.7991
▁Spe	-10.7997
5775	-10.8004
▁man	-10.8015
▁Centr	-10.8015
otstar	-10.8018
▁₹8,	-10.8021
▁త్వర	-10.8022
▁Medchal	-10.8022
6739700695	-10.8022
CMBV	-10.8022
ZOMATO	-10.8022
sket	-10.8022
స్తున్నాము	-10.8022
▁12/7/2024	-10.8022
▁Report	-10.8022
▁amenities	-10.8022
▁movies	-10.8022
▁reference	-10.8022
▁చెల్లుబాటు	-10.8022
▁every	-10.8022
▁tools	-10.8023
▁ITR	-10.8023
ుకుంట	-10.8023
▁కాల్	-10.8024
▁Leg	-10.8024
కర	-10.8025
డా	-10.8025
MENT	-10.8025
▁₹3,0	-10.8026
laim	-10.8026
▁Out	-10.8027
.243	-10.8027
▁₹2,5,	-10.8028
BX	-10.8029
huvi	-10.803
mala	-10.803
.285.00	-10.8031
NT	-10.8032
fall	-10.8032
Mandate	-10.8032
▁updated	-10.8034
.311	-10.8036
.1000.00	-10.8036
▁Moder	-10.8038
▁ref	-10.8038
▁spends	-10.804
.300.00	-10.8042
6836	-10.8042
▁20/07/2025	-10.8044
▁Up	-10.8048
4809	-10.8048
▁17-07-25	-10.8049
▁IIT	-10.8052
4829	-10.8054
tem	-10.8055
ost	-10.8055
▁25-06-25	-10.8056
▁Playo	-10.8061
YY	-10.8069
9390	-10.8069
saathi	-10.8074
sanchar	-10.8074
▁Auto	-10.808
572	-10.8084
HD	-10.8093
nsk	-10.8095
▁₹3,4,	-10.8095
.1387	-10.8098
▁logg	-10.812
reliance	-10.8121
wv	-10.8136
lls	-10.8137
757	-10.8138
HM	-10.8143
9475	-10.8146
293	-10.8158
3410	-10.8167
6006	-10.8172
WY	-10.8188
5564	-10.8188
▁22:5	-10.8189
▁₹2,5	-10.8193
PV	-10.8194
5.78	-10.82
BK	-10.8203
PY	-10.822
stin	-10.8221
track	-10.8228
2126	-10.8232
VA	-10.8233
.223	-10.8233
7842	-10.8252
4,3	-10.8256
iled	-10.8263
▁do	-10.8278
701	-10.8302
▁OF	-10.8303
ITH	-10.8313
5009	-10.8314
ML	-10.8323
▁05/06/2	-10.8334
NV	-10.8348
RAM	-10.8349
▁Neu	-10.835
ACT	-10.8363
adj	-10.837
8890	-10.8371
8516	-10.8375
lla	-10.838
7464	-10.8384
▁Simplilearn	-10.8384
2.66	-10.841
▁31-07-2	-10.8413
lC	-10.8419
4994	-10.842
970	-10.8423
4656	-10.8435
.521	-10.8435
2,4,	-10.8444
2,3,	-10.8449
Kx	-10.8455
.583	-10.846
9082	-10.8463
▁**17	-10.8466
5580	-10.8478
.2,0	-10.8486
▁AL	-10.8496
2210	-10.8497
▁వ	-10.8505
hu	-10.8512
▁₹2,0	-10.8514
▁It	-10.8517
8349	-10.8521
.135	-10.8529
9103	-10.853
.100	-10.8531
8634	-10.8538
2159	-10.8548
8463	-10.8575
ZW	-10.8578
pare	-10.858
GF	-10.8603
pent	-10.8604
3468	-10.8627
643	-10.863
▁ర	-10.8644
2062	-10.8645
TG	-10.8657
CR	-10.8682
▁560	-10.8695
7821	-10.8695
6095	-10.8705
9793	-10.8715
.1,2	-10.8716
147	-10.8719
HU	-10.8729
6681	-10.8737
▁**54	-10.8739
aste	-10.874
My	-10.8746
7738	-10.8747
2548	-10.8747
-9	-10.8753
277.	-10.8761
8111	-10.8764
7448	-10.8783
552.	-10.8788
3,3	-10.8793
9462	-10.8811
FR	-10.8811
educt	-10.8815
342	-10.8817
1,5,	-10.8818
4,4,	-10.8821
7723	-10.8822
un	-10.883
▁₹4,9	-10.8832
*7	-10.8842
605	-10.8843
VE	-10.8853
OL	-10.8869
1821	-10.8871
6016	-10.8871
411	-10.89
REN	-10.8902
120.	-10.8911
3,4	-10.8918
247.	-10.8935
.277	-10.8945
8183	-10.8949
ake	-10.8954
Neu	-10.8959
గ	-10.8969
473.	-10.8971
తో	-10.8974
pto	-10.8981
215	-10.8983
2251	-10.8991
000.00	-10.8997
9662	-10.9002
8526	-10.9008
7.01	-10.9009
istri	-10.9017
Day	-10.9024
VT	-10.9039
.393	-10.9046
748	-10.9055
.268	-10.9057
DU	-10.9064
6375	-10.9065
KYC	-10.9073
9755	-10.9079
.983	-10.9091
.294	-10.9094
6154	-10.9096
3,0,	-10.9104
6148	-10.9106
9270	-10.9114
SKAR	-10.9125
um	-10.9128
1930	-10.9136
2092	-10.9139
BM	-10.9145
HL	-10.9152
5445	-10.9159
dt	-10.9161
గం	-10.9171
▁899	-10.9175
-04-2025	-10.9176
3,5,	-10.918
under	-10.9185
2812	-10.9202
1240	-10.9203
/2/2024	-10.9204
4869	-10.921
anchar	-10.9213
aathi	-10.9214
852	-10.9215
:31.	-10.9225
WR	-10.9228
10.00	-10.923
845	-10.9236
5371	-10.9241
LB	-10.9244
.379	-10.9245
5897	-10.925
6225	-10.9251
1328	-10.9256
apido	-10.9256
్రియ	-10.9262
763	-10.9264
ppointment	-10.9268
▁కాల	-10.9268
omplete	-10.9268
▁చేసుక	-10.9271
Star	-10.9272
▁లింక్	-10.9272
XPIR	-10.9272
▁18/06/2025	-10.9272
▁2/7/2024	-10.9272
▁20/06/2025	-10.9272
▁21/8/2024	-10.9272
▁JioHot	-10.9272
▁KRISHNA	-10.9272
▁Wallet	-10.9272
▁assistance	-10.9272
▁iShop	-10.9272
▁life	-10.9272
▁సె	-10.9272
▁సేవలు	-10.9272
▁చేసుకోండి	-10.9272
Phone	-10.9272
trip	-10.9272
▁earn	-10.9272
▁portal	-10.9272
ivasa	-10.9272
▁saree	-10.9272
HYD	-10.9272
pet	-10.9273
▁Hero	-10.9273
టె	-10.9273
worth	-10.9273
▁Vijay	-10.9273
▁access	-10.9273
dence	-10.9274
▁invite	-10.9274
True	-10.9274
▁21/4/2024	-10.9274
▁13/2/2024	-10.9274
కి	-10.9274
▁Control	-10.9274
▁96180	-10.9274
NEUT	-10.9274
▁3/10/2024	-10.9275
▁Cash	-10.9275
▁4/9/2024	-10.9275
▁26/4/2024	-10.9275
▁some	-10.9275
MSU	-10.9276
▁enter	-10.9277
▁Light	-10.9278
▁15/11/2024	-10.9279
4875	-10.9279
.500.00	-10.928
▁Gre	-10.9282
2,5	-10.9282
▁update	-10.9283
▁3/3/2024	-10.9283
▁02-06-25	-10.9283
AILA	-10.9283
▁09-06-25	-10.9285
.365.00	-10.9286
▁25/08/2025	-10.9289
▁22/08/2025	-10.9291
4.03	-10.9291
▁08-08-25	-10.9292
8520	-10.9292
0.51	-10.9294
2,6,	-10.9296
.400.00	-10.9297
▁Cour	-10.9298
.249	-10.9301
BLE	-10.9302
▁+914035861882.	-10.9303
▁24-08-25	-10.931
EA	-10.9311
.4,9	-10.9318
very	-10.932
6052	-10.9321
FO	-10.9322
82.8	-10.9323
▁SRI	-10.9324
apr	-10.9325
LIM	-10.9327
▁19/07/2025	-10.9328
SWA	-10.933
6.85	-10.9332
▁expiry	-10.9337
▁Open	-10.9337
value	-10.9339
7595	-10.9339
▁Dr	-10.9339
▁Locat	-10.9347
▁10-07-25	-10.9349
▁550	-10.9357
OG	-10.9366
▁**10	-10.9367
2,7,	-10.937
టల్	-10.9373
9.05	-10.9374
371.	-10.9381
5875	-10.9383
Ven	-10.9384
8066	-10.9385
▁**89	-10.9388
PEN	-10.9389
▁**69	-10.9411
tep	-10.9413
long	-10.942
Gg	-10.9421
8796	-10.9426
9605	-10.9433
▁**30	-10.9444
.4761	-10.945
KH	-10.9453
▁13/08/2	-10.9455
▁**71	-10.9462
4131	-10.9472
.1,4,	-10.9474
SS	-10.9488
4988	-10.9497
than	-10.9498
9.19	-10.9501
▁USD	-10.951
6327	-10.9512
5512	-10.9518
▁చేసుకోవ	-10.952
5409	-10.9544
.143	-10.9553
.347	-10.9559
4765	-10.956
.3,9	-10.9561
4732	-10.9567
1.35	-10.9577
.392	-10.9585
న్లో	-10.9613
APU	-10.9635
8615	-10.9637
▁₹2,8	-10.9637
chi	-10.9641
JC	-10.9655
RU	-10.9655
189	-10.966
tg	-10.9662
ug	-10.9662
▁tour	-10.9664
222	-10.967
8.45	-10.9677
.1723	-10.9684
▁**48	-10.9685
.3900	-10.9689
50%	-10.9692
.315	-10.97
.848	-10.9737
▁₹2,3	-10.974
GY	-10.974
30.00	-10.9743
way	-10.9756
925	-10.9768
4152	-10.9769
VED	-10.9774
.121	-10.9795
0.03	-10.9805
7124	-10.9806
6323	-10.9825
8223.	-10.9842
1326	-10.9843
604	-10.9845
.183	-10.9847
2333	-10.9847
బో	-10.9852
9869	-10.9862
059	-10.9868
.885	-10.9877
069	-10.9877
▁757	-10.9882
▁812	-10.9883
350.00	-10.9884
.823	-10.9897
▁28/08/2	-10.9899
.652	-10.9901
278.	-10.9901
▁**58	-10.9914
.221	-10.9918
,000	-10.9929
7747	-10.9932
.1539	-10.994
.270	-10.9941
2921	-10.9941
op	-10.9952
1817	-10.9956
8.85	-10.997
kx	-10.9972
BF	-10.9972
.1,2,	-10.9984
.230	-10.9988
6.72	-10.9994
1865	-10.9997
7497	-11.0011
AH	-11.0015
9993	-11.0016
140.00	-11.0019
.491	-11.0025
-03-2025	-11.0025
9898	-11.0035
7792	-11.0039
1738	-11.0043
2757	-11.0046
7044	-11.0052
▁pro	-11.0052
▁500	-11.0053
FA	-11.0058
3,4,	-11.0064
8530	-11.0064
LD	-11.0064
ind	-11.0079
edu	-11.008
9223	-11.0084
EQ	-11.0085
7697	-11.0094
.713	-11.0098
8819	-11.0102
.400	-11.0102
7:00	-11.0102
4167	-11.0109
1006	-11.0127
VI	-11.0139
899.00	-11.0144
9054	-11.0159
.631	-11.0175
9952	-11.0187
3785	-11.0192
▁add	-11.0192
5354	-11.0195
si	-11.0203
5264	-11.0226
2675	-11.023
5648	-11.023
ess	-11.023
7426	-11.0231
▁₹2,7,	-11.0231
439.	-11.0235
4471	-11.0245
.202	-11.0245
AZ	-11.0268
4033	-11.0277
8160	-11.028
TX	-11.029
5764	-11.0296
DS	-11.0299
▁03-07-2	-11.0312
8907	-11.0312
JU	-11.0315
ట	-11.0319
▁**26	-11.0323
2739	-11.0325
▁**42	-11.0338
2059	-11.0357
inst	-11.0359
6049	-11.0366
4225	-11.0376
5178	-11.0393
tion	-11.0393
.453	-11.0394
7260	-11.0397
ready	-11.0403
7128	-11.0406
NL	-11.0409
successful	-11.0419
get	-11.0426
bit	-11.0429
LZ	-11.043
.113	-11.0437
member	-11.045
no	-11.0451
2971	-11.0459
.2,8	-11.0461
LU	-11.0472
kY	-11.0475
9308	-11.0482
▁₹9,	-11.0482
▁₹1,9	-11.0487
ంచుకోండి	-11.0507
4,4	-11.0507
.215	-11.0512
9357	-11.0526
8591	-11.0544
ZL	-11.0548
6763	-11.0549
▁con	-11.0556
8423	-11.0569
2927	-11.0583
.741	-11.0603
.805	-11.0604
SY	-11.0611
.176	-11.0622
.359	-11.0632
8316	-11.0635
.859	-11.0642
007	-11.0648
ward	-11.0651
pts	-11.0653
▁య	-11.0659
7571	-11.0659
▁19:1	-11.0661
.831	-11.0662
▁813	-11.0663
▁log	-11.0663
▁మి	-11.0674
9.33	-11.0679
9726	-11.0684
▁Ananda	-11.0684
▁Learn	-11.0691
LAX	-11.0693
ది	-11.07
3260	-11.07
▁Digi	-11.07
=7306497343	-11.07
ంచడానికి	-11.07
iguda	-11.0701
necessary	-11.0701
్వా	-11.0701
▁2/5/2024	-11.0701
▁20/5/2024	-11.0701
▁21/7/2024	-11.0701
▁25/06/2025	-11.0701
▁8575795757	-11.0701
▁Exchange	-11.0701
▁SUDHAKAR	-11.0701
▁Transport	-11.0701
▁gift	-11.0701
▁meeting	-11.0701
▁preferences	-11.0701
▁మోస	-11.0701
▁వినియోగదారున	-11.0701
▁సై	-11.0701
981.	-11.0701
▁Build	-11.0701
▁dream	-11.0701
ected	-11.0701
▁Holi	-11.0701
▁Resid	-11.0701
GPT	-11.0701
ెంట	-11.0701
CFDAC	-11.0701
▁NAGA	-11.0701
▁advi	-11.0701
ndroid	-11.0701
▁Heights	-11.0701
▁MART	-11.0701
▁owner	-11.0701
ends	-11.0701
mark	-11.0702
▁21/9/2024	-11.0702
▁close	-11.0702
▁4/1/2024	-11.0703
▁money	-11.0703
.20000.00	-11.0703
▁12/2/2024	-11.0704
▁28/3/2024	-11.0704
EARN	-11.0704
▁5/1/2024	-11.0705
▁2/2/2024	-11.0705
▁28/6/2024	-11.0705
▁11/3/2024	-11.0706
▁UMN	-11.0706
▁5/2/2024	-11.0707
▁05/08/2025	-11.0707
▁8/4/2024	-11.0708
AUG	-11.0709
▁3/4/2024	-11.0709
.2000.00	-11.071
▁4/6/2024	-11.0712
8010	-11.0712
▁10/12/2024	-11.0713
▁Crore	-11.0713
.620.00	-11.0713
EAR	-11.0714
▁places	-11.0715
39117	-11.0716
5254	-11.0717
▁13/07/2025	-11.0719
.883	-11.0721
.794	-11.0722
▁LIVE	-11.0724
▁serv	-11.0724
.103	-11.0725
వే	-11.0731
ZJ	-11.0731
3834	-11.0734
.995	-11.0736
1368	-11.0737
RAL	-11.0737
jee	-11.0738
30942	-11.0738
▁16-08-25	-11.0741
5765	-11.0754
5606	-11.0754
1779	-11.0757
.3907	-11.0759
8.52	-11.0763
KT	-11.0767
.395.	-11.0767
sun	-11.0772
9071	-11.0777
▁Inte	-11.0778
75.51	-11.0779
నె	-11.0781
.2131	-11.0782
3127	-11.0784
.2838	-11.0785
.5679	-11.0788
1.52	-11.0788
.3266	-11.0788
erm	-11.0799
6.49	-11.0799
.1976	-11.0808
016	-11.0808
▁expired	-11.081
▁limits	-11.0818
.1554	-11.082
ANDA	-11.0823
9922	-11.0826
▁digit	-11.0827
9587	-11.0828
3964	-11.0829
3.29	-11.0834
.3494	-11.0835
▁make	-11.0836
attu	-11.0837
.4126	-11.0839
TNI	-11.0839
.2554	-11.0843
▁gas	-11.0844
▁**49	-11.0851
.4425	-11.0852
7255	-11.0852
▁ann	-11.0856
4795	-11.0858
4015	-11.086
.4592	-11.086
5814	-11.0862
▁5525	-11.0863
976.	-11.0865
4022	-11.0865
GG	-11.0866
ile	-11.0866
.397	-11.0867
7848	-11.0872
▁4/8/2024	-11.0872
.856	-11.0873
7225	-11.0875
▁Finance	-11.0877
3.52	-11.0877
9.31	-11.0879
1.58	-11.0883
▁**21	-11.0883
012	-11.0885
PS	-11.0891
CY	-11.0892
OB	-11.0893
5883	-11.0902
.209	-11.0905
3.99	-11.0911
.468	-11.0912
2651	-11.0913
254.	-11.0918
4078	-11.0921
3,5	-11.0925
▁SAL	-11.0926
▁₹3,2	-11.0927
9864	-11.0927
910	-11.0928
▁TnCs	-11.0932
.494	-11.0933
57.53	-11.0941
456.	-11.0952
615.	-11.0954
▁₹2,2	-11.0962
mple	-11.0964
.1629	-11.0976
4967	-11.0985
▁open	-11.0985
195.	-11.0996
low	-11.0998
8170	-11.1001
.3646	-11.1007
SW	-11.1009
365.	-11.1016
8553	-11.1017
.222	-11.1022
.457	-11.1027
9958	-11.1031
Insurance	-11.1035
9.69	-11.1037
.606	-11.1047
681.	-11.1047
JE	-11.1057
9057.	-11.1071
INST	-11.1074
153	-11.1076
100%	-11.1083
▁Nir	-11.109
5976.	-11.1091
NA	-11.1093
9.32	-11.1094
7506	-11.11
▁0.0	-11.1101
KE	-11.1108
5245.	-11.111
7995	-11.111
SU	-11.1116
5.85	-11.1118
gE	-11.1132
3808.	-11.1132
ZC	-11.1132
.303	-11.1141
367	-11.1142
ZS	-11.1146
5154	-11.1152
4122	-11.1157
ాల	-11.116
7794	-11.116
5307.	-11.1163
5964	-11.1166
1451	-11.1169
▁match	-11.1174
3947	-11.1175
.2,7	-11.1177
1.05	-11.1183
.3034	-11.1193
7704.	-11.1195
4047	-11.1204
9388.	-11.1205
.850	-11.1209
1803	-11.1215
ff	-11.1224
ib	-11.1226
.555	-11.1228
.1336	-11.123
4703	-11.1239
9028	-11.1247
927.	-11.1251
తుంది	-11.1252
.666	-11.1255
341.	-11.1256
7560	-11.1259
7769	-11.1264
UK	-11.1268
.4424	-11.1271
9.03	-11.1275
.1489	-11.1276
.2371	-11.1281
8683	-11.1282
8457	-11.1282
.2020	-11.1284
ENT	-11.1292
5.21	-11.1294
▁JA	-11.1295
1475	-11.1301
616	-11.1309
9.78	-11.1312
3555	-11.1317
660	-11.132
.3883	-11.1321
3609	-11.1323
7360	-11.1327
7.99	-11.1332
9813	-11.1332
.175	-11.1332
.1310	-11.1333
8.12	-11.1334
4603	-11.1335
2170	-11.1335
426.	-11.134
9.24	-11.1345
ge	-11.1352
2373	-11.1354
OV	-11.1355
008.	-11.1361
9123	-11.1363
▁780	-11.1369
.2682	-11.1375
346.	-11.1381
1075	-11.1382
9.67	-11.1397
9204	-11.1409
1687	-11.1422
18.6	-11.1435
be	-11.1453
9329	-11.1455
YZ	-11.1459
.4515	-11.1461
95.32	-11.1467
1985	-11.1467
5843	-11.147
0.11	-11.1474
ET	-11.1475
4292	-11.1477
.469	-11.1482
5278	-11.1483
3.80	-11.1494
XQ	-11.1498
6034	-11.1498
3804	-11.1499
FIN	-11.1511
.863	-11.1517
.516	-11.1519
9849.	-11.1529
5655	-11.1536
9690	-11.1537
2725.	-11.1537
hole	-11.1538
4910.	-11.1553
mail	-11.1556
7316	-11.1558
4200	-11.1559
1804	-11.156
725.	-11.156
▁730	-11.1561
4763	-11.1568
3904	-11.1568
2902	-11.1572
3970	-11.159
9178	-11.1591
.2800	-11.1605
SV	-11.1608
8121	-11.1609
▁₹1,7	-11.1611
.3644	-11.1613
472.	-11.1616
.784	-11.1623
2.04	-11.1628
DD	-11.1629
▁392	-11.1637
1621	-11.1638
9291	-11.1641
▁bu	-11.1645
.734	-11.1649
3420	-11.1652
RG	-11.1653
6796	-11.1668
5328	-11.1678
7548	-11.1683
.446	-11.1683
1111	-11.1686
1706	-11.1691
.1896	-11.1696
ZP	-11.1698
▁09/08/2	-11.17
UL	-11.1711
.3116	-11.1715
.410	-11.172
6719	-11.1721
▁Be	-11.1723
4410	-11.173
1380	-11.173
01.15	-11.1732
LS	-11.1735
.664	-11.1736
▁big	-11.1742
.1,3,	-11.1744
360.	-11.1749
276	-11.1753
8078	-11.1753
.411.	-11.1758
6549	-11.1766
▁**93	-11.1775
6.91	-11.1783
4213	-11.1789
4717	-11.1789
2946	-11.1794
5474	-11.18
.913	-11.18
MH	-11.1805
▁₹3,5,	-11.1806
3.66	-11.1807
3053	-11.1812
.923	-11.1816
9041	-11.1817
6689	-11.1818
.3980	-11.1838
5846	-11.1838
2959	-11.184
9680	-11.1853
6674	-11.1858
IV	-11.1862
2767	-11.1866
15.5	-11.1866
AO	-11.1867
2105	-11.1868
6697	-11.1875
Pl	-11.1876
HARI	-11.1887
8082	-11.1898
చ	-11.1899
8956	-11.1899
3.37	-11.19
.925	-11.1904
2-	-11.1912
2714	-11.1913
.665	-11.1918
4.17	-11.1923
unt	-11.1923
2294	-11.1927
▁₹15	-11.1929
ree	-11.1937
.595	-11.1939
5686	-11.194
YV	-11.1944
AX	-11.1946
6030	-11.1953
3857	-11.1957
9014	-11.1964
325.00	-11.1965
7.35	-11.1966
OF	-11.1971
3.92	-11.1976
7590	-11.1983
250.00	-11.1996
9784	-11.2006
▁SH	-11.2006
9093	-11.2018
BAL	-11.2023
▁₹1,4,	-11.2024
▁AV	-11.2025
1836	-11.2028
.904	-11.203
9433	-11.2033
.610	-11.2037
9811	-11.2041
OE	-11.2044
5347	-11.2047
5539	-11.2047
▁01-08-2	-11.2051
USD	-11.2052
2.37	-11.2054
8,0	-11.2057
VEMULA	-11.2058
.675	-11.2059
.3,5	-11.2062
REDDY	-11.2067
shop	-11.2068
vijay	-11.2069
Vasa	-11.2069
Pluxee	-11.2071
Credit	-11.2072
051	-11.2072
4874	-11.2086
8344	-11.2095
▁Fast	-11.2101
2165	-11.2103
72.9	-11.2114
9932	-11.2126
5.50	-11.2129
6777	-11.213
.802	-11.2131
2180	-11.2132
4435	-11.2133
MV	-11.2138
9647	-11.2138
4778	-11.2138
TP	-11.2146
Bill	-11.2147
.707	-11.2148
4790	-11.2151
066.	-11.2154
1867	-11.2162
2693	-11.2171
5770	-11.2172
RV	-11.2184
▁**85	-11.2187
EP	-11.219
▁247	-11.2197
XXXXX	-11.2198
▁**40	-11.2205
7240	-11.2206
Hu	-11.2216
8.58	-11.2216
5.22	-11.2245
.424	-11.2246
inf	-11.2249
1982	-11.225
8122	-11.225
926.0	-11.2253
420.	-11.226
CRD	-11.2266
వం	-11.2279
LQ	-11.2279
8.80	-11.2279
182.	-11.228
2743	-11.2281
5006	-11.2287
6176	-11.2287
5488	-11.229
ight	-11.2295
/10/2024	-11.2296
9297	-11.2298
.546	-11.2299
9303	-11.2305
368.	-11.2306
/1/2024	-11.2308
1203	-11.2313
6.12	-11.2314
2769	-11.2324
TA	-11.2325
1542	-11.233
1458	-11.2331
452.	-11.2343
ards	-11.2346
.198	-11.2348
egistration	-11.235
SHI	-11.2354
▁confirm	-11.2354
mpall	-11.2355
ారి	-11.2356
JUN	-11.2357
ownload	-11.2358
ILLA	-11.2359
days	-11.2359
6/8/2024	-11.2363
3157	-11.2363
axis	-11.2364
ానికి	-11.2367
▁inform	-11.2367
FNHRE	-11.2367
ummer	-11.2367
Placements	-11.2367
eroes	-11.2367
website	-11.2367
▁1/5/2024	-11.2367
▁1/8/2024	-11.2367
▁12/06/2025	-11.2367
▁15/06/2025	-11.2367
▁16/06/2025	-11.2367
▁19/5/2024	-11.2367
▁24/7/2024	-11.2367
▁27/5/2024	-11.2367
▁7/7/2024	-11.2367
▁7/8/2024	-11.2367
▁Approved	-11.2367
▁BHIM	-11.2367
▁Congratulations	-11.2367
▁Gajularamaram	-11.2367
▁Ganesh	-11.2367
▁MALLIKARJUN	-11.2367
▁Maintain	-11.2367
▁Voucher	-11.2367
▁Warrior	-11.2367
▁address	-11.2367
▁applica	-11.2367
▁fetch	-11.2367
▁indoors	-11.2367
▁price	-11.2367
▁quick	-11.2367
▁style	-11.2367
▁అన్	-11.2367
▁ఇటీవల	-11.2367
▁ఉపయోగించ	-11.2367
▁తేదీ	-11.2367
▁ముగుస్తుంది	-11.2367
▁MyCards	-11.2367
▁పేరు	-11.2367
▁option	-11.2367
URTH	-11.2367
▁Expert	-11.2367
▁KIRAN	-11.2367
▁Comm	-11.2367
▁North	-11.2367
▁pass	-11.2367
▁matters	-11.2367
live	-11.2367
▁155223	-11.2367
Charges	-11.2367
▁ENTER	-11.2367
▁JEE	-11.2368
noticed	-11.2368
▁25/8/2024	-11.2368
IVATE	-11.2368
ences	-11.2368
ricket	-11.2368
auto	-11.2368
▁Gold	-11.2368
Janapriya	-11.2368
▁Extr	-11.2368
▁Jeevansathi	-11.2368
▁₹4,0	-11.2368
▁DHAN	-11.2368
rite	-11.2368
▁inconvenience	-11.2368
ANCE	-11.2368
▁pick	-11.2368
▁health	-11.2368
▁11/10/2024	-11.2369
520250	-11.2369
▁28/9/2024	-11.2369
▁14/1/2024	-11.2369
్వీ	-11.2369
▁20/1/2024	-11.2369
rzp	-11.2369
TUM	-11.2369
▁27/1/2024	-11.2369
▁16/1/2024	-11.2369
▁STORE	-11.237
▁17/10/2024	-11.237
inanc	-11.237
▁13/9/2024	-11.2371
▁6/1/2024	-11.2371
▁24/9/2024	-11.2371
▁delivery	-11.2371
▁9/2/2024	-11.2371
idate	-11.2371
బర్	-11.2371
▁11/4/2024	-11.2371
▁18/12/2024	-11.2371
▁18/11/2024	-11.2372
▁personal	-11.2372
▁16/11/2024	-11.2372
▁3/2/2024	-11.2372
▁13/4/2024	-11.2373
3.00	-11.2374
▁happ	-11.2374
EPE	-11.2375
▁fees	-11.2375
lap	-11.2375
TTN	-11.2375
▁11/6/2024	-11.2375
▁3/11/2024	-11.2376
roof	-11.2376
.5080.	-11.2377
▁25/06/25	-11.2378
▁22/3/2024	-11.2378
▁15/4/2024	-11.2379
less	-11.238
▁confirmed	-11.2381
▁provide	-11.2381
▁Chat	-11.2382
▁22/6/2024	-11.2382
RJUN	-11.2382
క్రి	-11.2382
▁01/05/25	-11.2383
▁End	-11.2384
ULA	-11.2385
▁01-07-25	-11.2385
537	-11.2385
.947	-11.2388
▁చేయబడి	-11.239
▁BHM	-11.2391
00003	-11.2395
▁1/3/2024	-11.2395
.6242	-11.2396
▁556	-11.2396
సుల	-11.2397
Track	-11.2398
ITS	-11.2398
▁11-08-25	-11.24
.2072.	-11.2401
.4760.	-11.2401
0501	-11.2402
▁Reg	-11.2403
QV	-11.2404
inten	-11.2404
5522	-11.2407
ROW	-11.2409
▁18-08-25	-11.241
.3756	-11.2411
▁20-08-25	-11.2412
.5022	-11.2412
.6279	-11.2413
1484	-11.2414
▁₹4,9,	-11.2415
▁**347	-11.2415
6826	-11.2416
.5292	-11.2418
EAU	-11.2418
.5385	-11.2421
.7042	-11.2421
.2051	-11.2424
.3760	-11.2424
.6281	-11.2427
.5842	-11.2427
atten	-11.2427
1823	-11.2428
.6910	-11.2429
.2805	-11.243
4870	-11.2433
▁Job	-11.2435
.9769	-11.2436
ize	-11.2436
MY	-11.2437
17.78	-11.2438
.2752	-11.2439
75.05	-11.2439
.7427	-11.244
Max	-11.244
.1953	-11.244
.8434	-11.2441
3616	-11.2441
.2055	-11.2441
4,0,	-11.2443
.3561	-11.2444
.4508	-11.2445
5907	-11.2447
.4347	-11.2447
.4362	-11.2448
.7065	-11.2449
2534.	-11.2449
65.58	-11.245
04821	-11.2451
.3079	-11.2452
213.17	-11.2452
.7898	-11.2453
▁Tour	-11.2453
.5367	-11.2454
.8788	-11.2454
.9375	-11.2454
▁whi	-11.2456
BQ	-11.2456
6855	-11.2457
.3091	-11.2457
.1933	-11.2457
▁Contact	-11.2458
.6637	-11.2459
.1096	-11.2461
.4403	-11.2463
.3212	-11.2463
▁process	-11.2464
▁₹3,6,	-11.2465
.4982	-11.2465
9222	-11.2467
.3812	-11.2468
.6856	-11.2468
.3590	-11.2468
GAR	-11.2468
.4326	-11.2469
.1343	-11.2469
.1911	-11.2469
.9342	-11.247
RAV	-11.2473
.3897	-11.2473
were	-11.2475
.4861	-11.2476
64.17	-11.2477
.9890	-11.2477
.4488	-11.248
24.97	-11.248
.1979	-11.2481
83.64	-11.2485
.1549	-11.2486
.8100	-11.2487
.9707	-11.2487
.1660	-11.2488
4171	-11.2488
7082	-11.2491
97237	-11.2491
.6009	-11.2492
.9601	-11.2493
.2177	-11.2493
.3342	-11.2496
.7150	-11.2497
.3787	-11.2497
.2976	-11.2497
.5783	-11.2497
7927	-11.2498
1084	-11.2499
.4857	-11.25
.6816	-11.25
.1060	-11.2502
.1193	-11.2504
.4946	-11.2506
.4562	-11.2508
.4863	-11.2509
.2711	-11.251
.1812	-11.2511
.1617	-11.2511
.4284	-11.2511
.2855	-11.2511
.1414	-11.2514
.4576	-11.2515
751.31	-11.2516
.8282	-11.2518
7634.	-11.2519
.1926	-11.252
.2551	-11.2521
7.44	-11.2521
.1437	-11.2523
.608	-11.2524
.3603	-11.2524
.5568	-11.2524
.1564	-11.2525
.1622	-11.2525
AJI	-11.2527
.3163	-11.2528
.3396	-11.2529
.9425	-11.253
9163	-11.2532
.423	-11.2533
.4220	-11.2534
BS	-11.2535
.4832	-11.2537
.6410	-11.2538
46.96	-11.254
.2933	-11.254
3107	-11.2544
6677	-11.2546
.9698	-11.2546
.3096	-11.2548
0.25	-11.2549
.1238	-11.255
5610	-11.255
8119	-11.2553
.1445	-11.2557
7467	-11.2557
16.44	-11.2558
.1220	-11.2559
ni	-11.2562
.919	-11.2564
db	-11.2565
▁**33	-11.257
BSC	-11.2571
1957	-11.2573
.3496	-11.2575
672	-11.2576
▁859	-11.2576
8014	-11.2577
5405	-11.2578
YM	-11.258
.8404	-11.2581
.4872	-11.2587
6863	-11.2589
3404	-11.2589
.8588	-11.2592
▁549	-11.2592
WH	-11.2593
.2999	-11.2593
7807.	-11.2597
.4182	-11.2599
10@	-11.26
.8454	-11.26
▁పంచుకో	-11.26
.3304	-11.2602
ding	-11.2611
.4314	-11.2611
.3615	-11.2611
3775.	-11.2612
7990	-11.2613
5253.	-11.2613
7659	-11.2614
zz	-11.2615
.2803	-11.262
9185	-11.2624
.4163	-11.2625
fg	-11.2628
.2387	-11.2628
.762	-11.263
rova	-11.2631
.4179	-11.2632
1.53	-11.2633
6248.	-11.2635
RB	-11.2639
.2527	-11.2641
787.	-11.2641
nse	-11.2641
.931	-11.2642
8150.	-11.2651
2025-	-11.2653
▁win	-11.2656
.3511	-11.2656
.1427	-11.2656
3.94	-11.2657
ist	-11.2658
3305	-11.2662
469.	-11.2663
.140	-11.2671
.717	-11.2673
2854	-11.2675
8711	-11.2676
.2011	-11.2678
9935	-11.2679
0.92	-11.2681
1,7,8	-11.2683
WL	-11.2688
.4197	-11.2691
AT	-11.2692
.2677	-11.2693
5509	-11.27
4913	-11.2705
.1366	-11.2706
4.21	-11.2708
5265	-11.2708
.673	-11.271
9184	-11.2714
.9186	-11.2717
.4974	-11.2722
▁numbers	-11.2725
3.63	-11.2729
.728	-11.273
1,0,	-11.2731
▁Pro	-11.2739
.6920	-11.2739
249.	-11.274
9335.	-11.274
▁ట	-11.2741
7122	-11.2742
▁dom	-11.2745
EY	-11.2745
9383	-11.2747
.2173	-11.275
6033.	-11.2753
ace	-11.2754
PLO	-11.2754
.4834	-11.2762
3251	-11.2765
.7812	-11.2767
366.3	-11.2768
3067	-11.2774
▁Mia	-11.2777
.6774	-11.2781
8835.	-11.2781
283.	-11.2781
271.9	-11.2785
.3679	-11.2787
ESH	-11.2787
5673	-11.2789
.1733	-11.279
5942	-11.279
.3911	-11.279
.152.3	-11.2791
5743.	-11.2797
7875	-11.2798
2026	-11.2798
2071.	-11.2799
.9283	-11.2802
3.57	-11.2803
.6515	-11.2804
7067.	-11.2806
6872	-11.2807
691.9	-11.2809
1742.	-11.2811
6828	-11.2812
443	-11.2818
XT	-11.2822
2280	-11.2825
AF	-11.2827
5246	-11.2828
9568	-11.2829
6670	-11.2831
▁**88	-11.2832
4095.	-11.2832
7383.	-11.2837
.4949	-11.2838
9356.	-11.2842
4332	-11.2844
056.	-11.2847
9718.	-11.2851
.3667	-11.2852
6284	-11.2853
2628	-11.2861
2637	-11.2862
.4973	-11.2868
6469.	-11.2874
7,5	-11.2876
8469	-11.2879
275.	-11.2881
258.7	-11.2882
.5759	-11.2883
81.29	-11.2885
.6864	-11.289
.6369	-11.2899
.328	-11.29
▁Om	-11.2904
.380	-11.2905
8908.	-11.2916
.7174	-11.2918
.855	-11.2918
9044	-11.292
.8284	-11.2922
3464	-11.2928
.8021	-11.293
61.5	-11.2932
9556	-11.2933
5267	-11.2934
.8800	-11.2936
9309.	-11.2938
1450	-11.2939
.506	-11.2945
.5921	-11.2949
227.4	-11.295
1018.	-11.2964
.769	-11.2971
.809	-11.2975
.1174	-11.2976
.4325.	-11.2979
6300.	-11.2984
2818.	-11.2988
2841	-11.299
5467.	-11.2996
.4241	-11.2996
712.	-11.2997
.3972	-11.2998
9589.	-11.3001
6830.	-11.3003
.7089	-11.3019
9245.	-11.302
3247.	-11.3022
.7717	-11.3025
5859	-11.3026
8510	-11.3029
4401	-11.303
3108	-11.3035
.932	-11.3039
.1272	-11.3039
.9571	-11.3042
868.0	-11.3042
.8050	-11.3046
▁941	-11.305
5348	-11.305
98.52	-11.3053
047	-11.3058
9265.	-11.3058
.3564	-11.306
62.65	-11.3065
HR	-11.3071
.1734.0	-11.3074
.4245	-11.3076
BH	-11.3077
7893	-11.3079
.4980	-11.308
3239	-11.3081
638.	-11.3082
.6562	-11.3082
.2484	-11.3082
.3880	-11.3097
3428	-11.3102
▁₹4,3,	-11.3108
12.4	-11.3108
DM	-11.311
.240	-11.3112
.842	-11.3112
4578.	-11.3116
66.48	-11.3121
.3201	-11.3131
2261	-11.3132
4.32	-11.3134
2045	-11.3138
VO	-11.3139
2969.	-11.3146
8743	-11.3147
.4443	-11.3149
164.7	-11.3149
1813.	-11.3151
8692.	-11.3153
3400	-11.3154
.1500	-11.3157
0600	-11.3164
7208	-11.3164
PG	-11.3165
6432	-11.3166
.2726	-11.3173
85.19	-11.3178
3285.	-11.318
9427	-11.3183
YOU	-11.3185
▁MS	-11.3186
GD	-11.3188
.1900.0	-11.3188
.9670	-11.3196
.5836	-11.3198
7685	-11.32
▁JIO	-11.321
29.77	-11.3212
8147	-11.3217
80.9	-11.3223
.7248	-11.3223
JV	-11.3223
.3332	-11.3224
.5956	-11.323
365.3	-11.3233
7503	-11.3237
.1769	-11.324
.2970	-11.3244
.3309	-11.3244
.642	-11.3254
305.8	-11.3255
HV	-11.3258
.877	-11.3259
.7328	-11.3262
4953.	-11.3264
1128	-11.3269
8312.	-11.3276
AU	-11.3277
.7943	-11.3281
.731	-11.3283
6159	-11.3288
7359	-11.329
6197.	-11.3294
7907	-11.3294
1119	-11.3295
6814.	-11.3302
2145.	-11.3305
UV	-11.3306
10.99	-11.3309
.946	-11.3309
2775.	-11.3317
426.6	-11.3322
4408	-11.3332
.1000	-11.3336
4.68	-11.3338
7102	-11.3349
2968.	-11.3351
3972	-11.3361
7017	-11.3361
3.04	-11.3362
9607	-11.3364
.262	-11.3366
8838	-11.3369
1860	-11.3376
2004	-11.3383
BB	-11.3383
.825	-11.3389
9364	-11.3404
FX	-11.341
.2123	-11.3411
2.51	-11.3412
4110	-11.3413
7068	-11.3416
56.7	-11.342
3.75	-11.342
.9915	-11.3422
713.	-11.3426
4501	-11.3427
02.6	-11.3429
NZ	-11.3434
.2301	-11.3436
▁**74	-11.3438
.5651	-11.3446
.862	-11.3452
AJAR	-11.3457
▁IS	-11.3473
82.37	-11.3477
.3099	-11.348
.663	-11.3481
.4536	-11.3486
.2420.	-11.3489
5762	-11.3493
.9341	-11.3495
1708	-11.3495
5031	-11.3497
*37	-11.3505
3968	-11.3506
.1219	-11.3515
ning	-11.3518
2.96	-11.3519
eactivated	-11.3521
JZ	-11.3524
ంట	-11.3525
VJ	-11.3526
ZM	-11.3527
8594	-11.3541
5228	-11.3541
39.3	-11.3547
8973	-11.3552
7243	-11.3557
BW	-11.356
YQ	-11.3561
7231	-11.3563
PJ	-11.3567
.384	-11.3568
5079	-11.3584
7782	-11.3589
YO	-11.3591
2001	-11.3591
1643	-11.3594
6,8	-11.3605
0749	-11.3606
.7589.	-11.3608
5.86	-11.3609
5571	-11.3614
3663	-11.3616
8,8	-11.3622
▁02/06/2	-11.3627
7191.	-11.3628
▁₹2,6	-11.3632
.1453	-11.3638
.4586	-11.3646
1057	-11.3649
3335	-11.3649
ZU	-11.3659
QO	-11.3662
4051	-11.3667
7101	-11.3672
.6196	-11.3673
6476	-11.3681
9544	-11.3683
plu	-11.3689
.941	-11.3697
4770	-11.3698
▁Citi	-11.3699
7.81	-11.3709
350.	-11.3711
1.57	-11.3714
gl	-11.3714
.3159	-11.3718
4073	-11.3727
3367	-11.3734
95.8	-11.3738
318.	-11.374
9166	-11.3748
5863	-11.3753
10.92	-11.3756
eam	-11.3758
9917.	-11.3761
▁ho	-11.3764
957.5	-11.3764
.570	-11.3774
7757	-11.3775
6173	-11.3777
4.41	-11.3778
60.9	-11.3786
6123	-11.3791
8215	-11.3794
81.9	-11.3798
5665	-11.3802
▁₹4,2,	-11.3814
5476	-11.3821
39.0	-11.3828
779.	-11.3836
pi	-11.3838
59.0	-11.3845
203.	-11.3851
.468.9	-11.3855
992.8	-11.3859
912.7	-11.3862
143.	-11.3864
04.4	-11.3867
3,9,	-11.3867
9845	-11.3868
8458	-11.3878
36.9	-11.388
3770	-11.3883
.4,7	-11.3887
gu	-11.3898
OM	-11.3898
7915.	-11.39
9181	-11.3902
08.7	-11.3903
2000	-11.3908
7850	-11.392
6.44	-11.3922
7.85	-11.3952
7239	-11.3952
.3142	-11.3952
5047	-11.3956
1997	-11.3958
4748	-11.3968
UNI	-11.397
2987	-11.3972
.2200.	-11.3977
.1,4	-11.3978
1729	-11.3983
9636	-11.3988
9488	-11.3995
5676	-11.3998
.173	-11.4001
▁00:	-11.4001
5110	-11.4019
1276.	-11.4024
2.77	-11.4026
▁MR	-11.4034
5944	-11.4036
▁చే	-11.4039
6177	-11.4041
deepa	-11.4044
988.	-11.405
6282	-11.4052
1922	-11.4054
9639	-11.4059
ఉచిత	-11.4062
dg	-11.4063
Malkajgiri	-11.4064
Kind	-11.4064
water	-11.4064
nitin	-11.4066
priyanka	-11.4067
due	-11.4067
book	-11.4067
74.6	-11.4068
Banking	-11.4069
9554	-11.4075
8018	-11.4076
9199	-11.4077
hi	-11.408
9437	-11.4083
Sri	-11.409
1229	-11.409
83.4	-11.4092
The	-11.4092
ZH	-11.4096
.3,6,	-11.4096
1679	-11.4098
1890	-11.41
rajiv	-11.4104
80.4	-11.4105
01.2	-11.4105
tanvi	-11.4106
electricity	-11.411
2047	-11.4112
5421	-11.4115
9525	-11.4116
2878	-11.412
5412	-11.4127
97.2	-11.4138
Call	-11.414
9891	-11.4144
63.9	-11.4152
▁13:4	-11.416
68.6	-11.416
.4680	-11.4162
7559	-11.4164
4216	-11.4168
65.6	-11.4171
8242	-11.4173
05.6	-11.418
3672	-11.4181
1924	-11.4183
PO	-11.4185
6932	-11.4186
UZ	-11.4188
per	-11.4218
.537	-11.4224
5772	-11.4228
80.5	-11.4228
36.6	-11.423
910.8	-11.4235
upgrade	-11.4238
5308	-11.4249
1650	-11.4258
227.	-11.426
039.8	-11.4265
OON	-11.4269
.150	-11.4273
4977	-11.4286
091.2	-11.4291
▁Kan	-11.4294
499.	-11.4303
HW	-11.4303
73.42	-11.4306
02.2	-11.4306
iagnostic	-11.4308
515.3	-11.431
72.2	-11.4314
▁₹3,8	-11.4315
2,48	-11.4318
1,7,	-11.432
4997	-11.4321
UT	-11.4323
741.0	-11.4329
4584	-11.4329
4846	-11.4341
.7276	-11.4344
.2,6,8	-11.4345
329.	-11.4348
1516	-11.4351
main	-11.4354
09.6	-11.4356
.996	-11.4358
914.2	-11.436
adha	-11.4362
4805	-11.4363
788.3	-11.4363
onsult	-11.4363
▁ఉండ	-11.4366
▁connect	-11.4367
ిమి	-11.4367
▁avail	-11.4367
269.6	-11.4367
ెక్షన్ల	-11.4367
ospital	-11.4367
▁కమ	-11.4367
▁Bhattachar	-11.4367
**********	-11.4367
1310700901	-11.4367
8686963161	-11.4367
TGiCCC	-11.4367
samsung	-11.4367
గించడానికి	-11.4367
ియా	-11.4367
▁10/8/2024.	-11.4367
▁11/7/2024	-11.4367
▁13/5/2024	-11.4367
▁13/7/2024	-11.4367
▁13/8/2024	-11.4367
▁2/8/2024	-11.4367
▁27/7/2024	-11.4367
▁8/5/2024	-11.4367
▁8/7/2024	-11.4367
▁Ahluwalia	-11.4367
▁Banik	-11.4367
▁Biswas	-11.4367
▁ClearTax	-11.4367
▁Jayaraman	-11.4367
▁LAVANYA	-11.4367
▁Sachar	-11.4367
▁Sarraf	-11.4367
▁Srivastava	-11.4367
▁Treebo	-11.4367
▁Upadhyay	-11.4367
▁criteria	-11.4367
▁iCash	-11.4367
▁scholarship	-11.4367
▁vouchers	-11.4367
▁పరి	-11.4367
6/5/2024	-11.4367
▁GenAI	-11.4367
▁Halder	-11.4367
▁Jhaveri	-11.4367
▁Sandhu	-11.4367
▁Sodhi	-11.4367
▁shortl	-11.4367
▁spam	-11.4367
Matrimony	-11.4367
▁Miyapur	-11.4367
▁includ	-11.4367
▁part	-11.4367
▁savings	-11.4367
earl	-11.4367
▁Dhingra	-11.4367
▁Walla	-11.4367
▁Ravel	-11.4367
▁Cyber	-11.4367
▁ignore	-11.4367
essential	-11.4367
▁require	-11.4367
APR	-11.4367
CFD	-11.4367
brand	-11.4367
▁select	-11.4368
▁9/12/2024.	-11.4368
▁LTD	-11.4368
▁₹1,0,	-11.4368
▁14/3/2024.	-11.4368
ించండి	-11.4368
▁Cric	-11.4368
3937	-11.4368
▁withdraw	-11.4368
3758	-11.4368
▁safety	-11.4368
డ్రా	-11.4369
▁Batra	-11.4369
▁21/2/2024	-11.4369
▁యా	-11.4369
VATH	-11.4369
▁14/10/2024	-11.4369
▁₹4,4,	-11.4369
బాట	-11.4369
▁18/1/2024	-11.437
▁18/10/2024	-11.437
▁13/10/2024	-11.437
▁16/10/2024	-11.437
▁28/12/2024	-11.437
▁11/9/2024	-11.437
▁24/1/2024	-11.437
తర	-11.437
▁14/9/2024	-11.437
ADHA	-11.4371
▁18/2/2024	-11.4371
▁20/2/2024	-11.4371
▁9/1/2024	-11.4371
tech	-11.4371
▁28/4/2024	-11.4371
▁consult	-11.4371
▁12/1/2024	-11.4371
▁12/10/2024	-11.4371
▁26/11/2024	-11.4371
▁23/11/2024	-11.4372
▁4/2/2024	-11.4372
RUM	-11.4372
spe	-11.4372
▁01/08/25	-11.4372
▁2/1/2024	-11.4372
త్త	-11.4372
▁20/12/2024	-11.4373
▁23/4/2024	-11.4373
▁27/12/2024	-11.4373
.10000.00	-11.4374
▁5/10/2024	-11.4374
▁7/2/2024	-11.4374
▁funds	-11.4374
▁6/9/2024	-11.4374
▁19/11/2024	-11.4374
▁3/9/2024	-11.4374
▁4/12/2024	-11.4374
▁Money	-11.4375
▁22/11/2024	-11.4375
▁repl	-11.4375
▁10/10/2024	-11.4376
lock	-11.4376
▁Kapur	-11.4376
▁8/11/2024	-11.4376
▁Dec	-11.4376
▁watching	-11.4377
grat	-11.4377
▁20/3/2024	-11.4377
▁Log	-11.4378
▁2/11/2024	-11.4379
▁1/2/2024	-11.4379
యే	-11.4379
355.	-11.438
▁6/7/2024.	-11.438
▁1/9/2024	-11.438
SUP	-11.4381
▁Fro	-11.4381
▁15/12/2024	-11.4382
-2@	-11.4382
DCL	-11.4382
▁5/11/2024	-11.4382
▁Make	-11.4383
4993	-11.4384
▁6/3/2024	-11.4385
350.6	-11.4386
1347	-11.4388
▁Registration	-11.4388
▁12/6/2024	-11.4388
▁31/03/25	-11.4388
fcb	-11.4388
HAT	-11.4389
80.0	-11.4389
615.4	-11.4389
LLU	-11.439
9944	-11.4392
.335.00	-11.4393
4.22	-11.4393
▁7/6/2024	-11.4394
▁15/6/2024	-11.4394
9686	-11.4394
▁₹221.	-11.4395
▁Thu	-11.4397
dri	-11.4399
▁Area	-11.44
▁son	-11.44
-05-2025	-11.4403
ics	-11.4404
ిమ్	-11.4405
4796	-11.4405
56.5	-11.4407
dant	-11.4408
▁set	-11.4409
UTHA	-11.4409
UB	-11.441
▁Renew	-11.4411
gut	-11.4413
▁1/6/2024	-11.4413
*39	-11.4413
NTH	-11.4414
5858.	-11.4415
లా	-11.4415
6139	-11.4417
▁Suri	-11.4419
8861	-11.4419
072.3	-11.4421
8897	-11.4423
▁acc	-11.4425
▁don	-11.4427
6.89	-11.4428
aring	-11.4428
3047	-11.4429
MU	-11.4429
5728	-11.4433
UG	-11.4433
▁Krishnan	-11.444
.1517	-11.4441
186.7	-11.4444
7939	-11.4449
98.85	-11.4449
▁5542	-11.4451
▁07/08/2025	-11.4453
WJ	-11.4453
3103	-11.446
6092	-11.4461
7952	-11.4463
353.	-11.4467
17.88	-11.4472
WP	-11.4479
8558	-11.448
▁₹2,9,	-11.4483
.2944	-11.4483
.746	-11.4484
.330.0	-11.4488
▁Vig	-11.4488
61.7	-11.4491
TATA	-11.4492
STA	-11.4495
war	-11.4501
vU	-11.4507
0.94	-11.4509
8220.	-11.451
Jv	-11.451
426.7	-11.4518
9368	-11.4519
248.	-11.4522
IGG	-11.4524
3922	-11.4528
4578	-11.453
KX	-11.4532
390.	-11.4534
IVE	-11.4536
easy	-11.4538
QX	-11.4542
ENS	-11.4544
5331	-11.4548
thi	-11.4548
055.4	-11.4549
1935	-11.4554
▁support	-11.4555
RN	-11.4558
68.57	-11.456
▁వీ	-11.456
1272	-11.4567
359.9	-11.4572
1011	-11.4578
9294	-11.4578
8851	-11.4578
MUL	-11.458
rate	-11.4586
24.4	-11.4594
313.	-11.4595
DR	-11.4602
.718	-11.4604
▁5440	-11.4604
TDR	-11.4604
921	-11.4604
▁Arya	-11.4607
UY	-11.4609
3523	-11.4613
1596	-11.4614
▁2025-03-	-11.4616
15.00	-11.4618
XA	-11.4619
▁watch	-11.462
EF	-11.4627
ETTY	-11.4628
6.36	-11.4629
6,781.00	-11.4631
▁**77	-11.4632
YALA	-11.4632
4755	-11.4633
▁Rajan	-11.4636
▁ma	-11.4639
06-	-11.464
FY	-11.4642
▁5074	-11.4653
4586	-11.4658
▁MAL	-11.4661
Lt	-11.4661
3,9,7	-11.4663
7253	-11.4679
3142	-11.468
4268	-11.4682
5708	-11.4688
722.2	-11.4695
501.1	-11.4708
1912	-11.4709
▁28/0	-11.4713
.2,5,	-11.4716
3.64	-11.472
6.43	-11.4722
2153	-11.474
▁**927	-11.4741
*14	-11.4742
2899	-11.4748
5885	-11.4752
053.	-11.4764
▁12-08-2	-11.4775
*49	-11.4776
Pri	-11.4792
▁791	-11.4794
4892	-11.4797
లను	-11.4797
.745	-11.4802
378.3	-11.4803
ory	-11.4803
5850	-11.4809
px	-11.4813
2920	-11.4815
.773	-11.4818
181.	-11.4821
8691	-11.4829
్య	-11.483
73.8	-11.4838
▁ste	-11.4845
1539	-11.485
3476	-11.4854
4388	-11.4855
.689	-11.4872
8856	-11.4874
037	-11.4879
1242	-11.488
682.	-11.4882
2483	-11.4884
9505	-11.4887
4241	-11.4902
3365	-11.4905
ATA	-11.4906
2377	-11.4919
22.68	-11.4923
737.8	-11.4924
▁activat	-11.4931
290.	-11.4932
7296.	-11.4933
▁727	-11.4936
5810	-11.4951
4473	-11.4955
2839	-11.4955
2178	-11.4962
4283	-11.4962
3.3	-11.4963
FK	-11.4965
55440	-11.4966
138.	-11.4967
6791	-11.4969
1800	-11.4971
▁STO	-11.4977
jd	-11.4984
1.32	-11.4985
9444	-11.4997
RIS	-11.5001
2278.	-11.5003
2198	-11.5004
kat	-11.5005
5232	-11.5006
1653	-11.5007
.576	-11.5017
2374	-11.5019
5693	-11.502
.890	-11.5031
REA	-11.5032
1732	-11.5034
9239	-11.5039
8528	-11.5048
6904	-11.5052
4771	-11.5063
884.	-11.5074
8871	-11.5081
కుం	-11.5085
.219	-11.5088
ick	-11.509
298.	-11.5103
1845	-11.5103
1793	-11.5104
8099	-11.5108
outube	-11.5112
8284	-11.512
.246.	-11.5126
2331	-11.513
550.	-11.513
3032	-11.5135
8001	-11.5145
2486	-11.5161
8975	-11.5161
ddi	-11.5163
5713	-11.5165
.635	-11.5165
*95	-11.5166
▁393	-11.5169
5971	-11.5171
9937	-11.5177
▁2-	-11.5178
4159	-11.5201
3778	-11.5212
▁5503	-11.5214
2194	-11.5215
▁UT	-11.5218
5969	-11.5219
6623	-11.522
7523	-11.5226
8525	-11.5237
9964	-11.5242
1,0,7	-11.526
5887	-11.5266
▁447	-11.5268
.605	-11.5275
3960	-11.5283
6427	-11.5286
4389	-11.5286
▁ba	-11.5293
8291	-11.5295
6114	-11.5297
5791	-11.5299
50.4	-11.5314
7338	-11.5321
29.00	-11.5324
▁**754	-11.5326
3737	-11.5326
▁Point	-11.5332
5001	-11.5336
gU	-11.5336
▁Le	-11.5337
2164	-11.5344
5601	-11.5346
1740	-11.5348
6122	-11.535
▁SUN	-11.5352
6902	-11.5357
7653	-11.5357
920.	-11.5365
3799	-11.5373
GOU	-11.5379
9595.	-11.5383
3524	-11.539
1124	-11.5401
6440	-11.5405
9194	-11.5405
4236	-11.5405
SB	-11.5421
3064	-11.5424
9149	-11.5428
2917	-11.5429
▁Propert	-11.5432
2,0,	-11.5434
432.	-11.5435
.3,8,	-11.5435
2874	-11.545
6265	-11.5453
▁765	-11.5467
1312	-11.5467
ాన	-11.5472
2825	-11.5475
8970	-11.5492
490.	-11.5494
9341	-11.5499
4467	-11.5518
1197	-11.5521
1409	-11.5525
2580	-11.5525
9486	-11.553
▁**167	-11.5532
7075	-11.5536
1.64	-11.5541
2721	-11.5547
2270	-11.5548
1652	-11.5553
9255	-11.5554
.263	-11.556
5538	-11.556
3666	-11.5565
2837	-11.5566
1187	-11.5569
BA	-11.5577
1896	-11.5577
lish	-11.5582
4922	-11.5586
8273	-11.5593
▁5576	-11.5596
8251	-11.5604
7840	-11.5607
2762	-11.5607
3497	-11.5613
5745	-11.5616
9665	-11.5619
8126	-11.5628
XO	-11.5632
2457	-11.5641
4621	-11.5644
7254	-11.5665
9401	-11.5666
4517	-11.5671
4764	-11.5683
1966	-11.5693
LRS	-11.5696
3337	-11.5699
8009	-11.5702
▁₹1,1,	-11.571
3632	-11.5724
5401	-11.5725
6720	-11.5735
6336	-11.5756
3850	-11.5756
▁12/07/2	-11.5761
4489	-11.5773
LT	-11.5773
▁₹6,	-11.5795
4173.	-11.5797
7.77	-11.58
3659	-11.5809
8151	-11.5812
fast	-11.5815
8444	-11.5821
4040	-11.5826
3336	-11.5837
.867	-11.5848
.483	-11.585
XN	-11.5851
1012	-11.5854
▁13:3	-11.5863
4554	-11.5871
7127	-11.5877
9860	-11.5877
12,1,	-11.5877
882.	-11.5887
▁350	-11.5893
3441	-11.5897
9770	-11.5909
1442	-11.5914
BN	-11.5914
5389	-11.5919
KM	-11.5925
5939	-11.5944
8.28	-11.5944
pF	-11.5947
1088	-11.5949
595.	-11.5955
7552	-11.5968
2191	-11.5992
.535	-11.6001
UW	-11.6003
9572	-11.6003
2979	-11.6012
8826	-11.6015
7805	-11.6017
8083	-11.6025
యకు	-11.6032
5145	-11.6034
watch	-11.6035
2515	-11.6057
▁650	-11.606
8576	-11.6064
3584	-11.6065
.305.	-11.6065
,917.	-11.6066
ane	-11.6067
4859	-11.6067
ctivated	-11.6084
6835	-11.6086
1847	-11.6102
4824	-11.6103
2639	-11.6107
2035	-11.6108
1582	-11.6123
1279	-11.6133
6582	-11.6134
4066	-11.6135
▁Flight	-11.6142
,023.	-11.6142
4574	-11.6151
8900	-11.6157
9637	-11.6162
5759	-11.6163
3120	-11.6163
YW	-11.6177
4130	-11.6177
7510	-11.6184
3654	-11.6191
2973	-11.6192
9910	-11.6196
6374	-11.62
171.	-11.6204
క్	-11.6208
▁అంత	-11.6214
1866	-11.6219
5,5	-11.623
7000	-11.6238
TL	-11.6246
6412	-11.6257
QT	-11.6259
9702	-11.6262
nsurance	-11.6277
5242	-11.6284
3957	-11.6287
515.	-11.6296
డం	-11.6307
1319	-11.6315
ol	-11.6316
5300	-11.632
3014	-11.6325
989.	-11.6326
578.	-11.6343
BG	-11.6343
VF	-11.6346
▁Colle	-11.6346
7984	-11.6347
9927	-11.635
6543	-11.635
porta	-11.6363
,9,1	-11.6364
7.20	-11.6376
9397	-11.6377
2,0,6	-11.6382
783.	-11.639
*69	-11.6392
▁KO	-11.6396
4319	-11.6403
zK	-11.6419
5587	-11.6444
2158.0	-11.6459
3.83	-11.646
1136	-11.6473
DY	-11.6474
8916	-11.6481
▁83.6	-11.649
3682	-11.6505
5049	-11.6509
MAL	-11.652
503.	-11.6533
1710	-11.6544
Finance	-11.655
GU	-11.6556
▁042	-11.6558
7841	-11.6559
View	-11.656
dinesh	-11.6566
.559	-11.6567
valid	-11.6568
report	-11.657
statement	-11.6571
IMPS	-11.6572
Account	-11.6573
8015	-11.6574
.649	-11.6574
3886	-11.6583
3617	-11.6598
2850	-11.6601
dis	-11.6601
99.00	-11.6605
4709	-11.6615
2908	-11.6616
1656	-11.6617
913.	-11.6635
1,99	-11.664
ble	-11.6642
4585	-11.6653
4894	-11.6655
1755	-11.6656
2137	-11.6661
4052	-11.6666
9106	-11.668
,1,9	-11.6685
8008	-11.6687
manish	-11.6688
8.09	-11.6694
▁Wh	-11.6694
5544	-11.6696
ARE	-11.6704
.353	-11.6708
MBA	-11.6708
ె	-11.6719
4382	-11.6719
6759	-11.673
PZ	-11.6732
ights	-11.6734
7016	-11.6766
655.	-11.677
2229	-11.6774
RJ	-11.6775
5423	-11.6781
435.	-11.6782
5517	-11.6782
8057	-11.6788
youtu	-11.6801
DP	-11.6805
8557	-11.6809
▁communi	-11.6812
ాయ	-11.6813
1630	-11.6814
Mi	-11.682
4094	-11.6822
5393	-11.6824
9719	-11.6825
10777	-11.6828
lp	-11.6831
▁₹3,1	-11.6832
que	-11.6835
vu	-11.6835
arn	-11.6836
8894	-11.6839
211544	-11.6846
6/7/2024	-11.6846
IKA	-11.6847
▁approve	-11.6854
erate	-11.6855
utur	-11.6855
▁credit	-11.6855
hrou	-11.6855
ontrol	-11.6863
iamond	-11.6865
rect	-11.6866
▁transact	-11.6866
▁down	-11.6867
nagar	-11.6867
Whatsapp	-11.6867
gnore	-11.6867
▁ఆం	-11.6867
▁Certifi	-11.6867
.5,00,000	-11.6867
2,367.00	-11.6867
Coupon	-11.6867
NARAYAN	-11.6867
certified	-11.6867
roduc	-11.6867
ెన్స్	-11.6867
▁12/8/2024	-11.6867
▁15/5/2024	-11.6867
▁17/7/2024	-11.6867
▁17/8/2024	-11.6867
▁25/5/2024	-11.6867
▁28/5/2024	-11.6867
▁28/7/2024	-11.6867
▁5/5/2024	-11.6867
▁8/8/2024	-11.6867
▁BHATTACHARJEE	-11.6867
▁Clinic	-11.6867
▁Connect	-11.6867
▁Initiated	-11.6867
▁Internships	-11.6867
▁Tanishq	-11.6867
▁Video	-11.6867
▁YADAV	-11.6867
▁doctor	-11.6867
▁drains	-11.6867
▁emergency	-11.6867
▁inactivity	-11.6867
▁నివేదించడం	-11.6867
▁విలువైన	-11.6867
1,9,0	-11.6867
Oliva	-11.6867
▁17,8,	-11.6867
▁9652982523@	-11.6867
▁9849616512@	-11.6867
▁JioHome	-11.6867
▁Women	-11.6867
4/5/2024	-11.6867
▁Confirm	-11.6867
▁after	-11.6867
▁change	-11.6867
▁delay	-11.6867
▁install	-11.6867
ELECT	-11.6867
▁give	-11.6867
▁1,50,000.00	-11.6867
▁Galaxy	-11.6867
▁NAGAMANI	-11.6867
▁బ్యా	-11.6867
▁28/10/2024.	-11.6867
▁ఛార్జీల	-11.6867
VENU	-11.6867
▁10,000+	-11.6867
▁7-12	-11.6867
SANTOSH	-11.6867
▁4/10/2024.	-11.6867
▁agent	-11.6867
▁biometric	-11.6867
▁Dream	-11.6868
Style	-11.6868
▁item	-11.6868
▁block	-11.6868
▁Eye	-11.6868
▁Success	-11.6868
▁2/4/2024.	-11.6868
▁ట్ర	-11.6868
పడతా	-11.6868
▁15/8/2024	-11.6868
▁FOR	-11.6868
tips	-11.6868
▁21/1/2024	-11.6869
▁28/1/2024	-11.6869
ుత్వ	-11.6869
eshma	-11.6869
older	-11.6869
▁mem	-11.6869
▁26/1/2024	-11.687
▁23/1/2024	-11.687
▁interest	-11.687
PALL	-11.687
99688	-11.687
▁సంద	-11.687
OUN	-11.687
LLM	-11.687
▁Gro	-11.687
▁20/10/2024	-11.6871
▁26/2/2024	-11.6871
▁rescheduled	-11.6871
▁Jewellery	-11.6871
▁23/2/2024	-11.6871
▁28/11/2024	-11.6871
▁23/9/2024	-11.6871
▁19/1/2024	-11.6871
▁26/7/2024	-11.6871
▁Lakh	-11.6872
▁22/10/2024	-11.6872
▁9/10/2024	-11.6872
▁27/2/2024	-11.6872
UMU	-11.6872
▁18/9/2024	-11.6872
▁8/1/2024	-11.6872
▁27/9/2024	-11.6872
▁24/2/2024	-11.6873
enga	-11.6873
▁5,5,	-11.6873
▁₹2,1,	-11.6873
60008	-11.6873
▁14/11/2024	-11.6873
▁21/12/2024	-11.6873
▁Tomorrow	-11.6874
▁good	-11.6874
0*/-	-11.6874
ారత	-11.6874
▁17/9/2024	-11.6874
▁validity	-11.6874
▁20/11/2024	-11.6875
▁6/2/2024	-11.6875
▁24/12/2024	-11.6876
rder	-11.6876
▁GAN	-11.6876
▁15/2/2024	-11.6876
▁7,4,	-11.6877
▁17/12/2024	-11.6877
▁22/12/2024	-11.6877
1080	-11.6877
9095	-11.6877
▁17/11/2024	-11.6877
▁15/9/2024	-11.6877
▁9/11/2024	-11.6878
▁date	-11.6878
▁1/10/2024	-11.6878
▁25/12/2024	-11.6879
▁Fri	-11.6879
,494.0	-11.688
▁EPF	-11.688
▁18/3/2024	-11.688
▁23/6/2024	-11.6881
▁₹2,2,2	-11.6881
3980	-11.6883
▁24/3/2024	-11.6883
▁Sangareddy	-11.6884
▁HCs	-11.6885
▁20/6/2024	-11.6885
కొన	-11.6885
pace	-11.6885
JAYA	-11.6886
▁9/3/2024	-11.6886
▁mak	-11.6888
▁There	-11.6889
▁19/6/2024	-11.6889
▁50,000.00	-11.6889
muk	-11.6889
AGE	-11.6892
▁5/4/2024	-11.6892
RIC	-11.6894
aysi	-11.6894
▁2/3/2024	-11.6894
టీ	-11.6896
.600.00	-11.6896
▁₹471.	-11.6897
▁Analytics	-11.6897
nivers	-11.6897
1,44	-11.69
9435	-11.6901
ITAR	-11.6901
▁₹147.	-11.6904
ease	-11.6904
ential	-11.6907
▁5712	-11.6908
1273	-11.6908
51691	-11.6909
.70.00	-11.691
tive	-11.6913
anch	-11.6913
ువ	-11.6914
moo	-11.6916
docs	-11.6917
00:00	-11.6917
7005	-11.6919
▁Member	-11.6919
SBI	-11.6921
6594	-11.6922
▁det	-11.6923
▁10/6/2024	-11.6926
4,7,6	-11.693
▁2,09	-11.6933
▁Expir	-11.6938
70,000	-11.6941
క్షించ	-11.6941
DHE	-11.6941
6886	-11.6943
.220.00	-11.6943
band	-11.6943
.6007	-11.6947
GN	-11.6948
ITHA	-11.6948
▁₹170.	-11.6954
9824	-11.6954
▁55791	-11.6955
1100	-11.696
▁SARA	-11.6961
25984	-11.6963
8212	-11.6969
1321	-11.6969
9446	-11.6969
.3,2,7	-11.697
IFY	-11.6975
PW	-11.6977
1836.	-11.6979
3627	-11.6982
tain	-11.6989
▁started	-11.6989
▁III	-11.699
mysr	-11.699
3732	-11.6998
.926	-11.6998
OZ	-11.6998
▁₹2,8,	-11.6999
5455	-11.7
▁Mal	-11.7002
watches	-11.701
jV	-11.7014
31913	-11.7017
qG	-11.7017
7173	-11.702
ger	-11.7021
2057	-11.7023
3680	-11.7023
3639	-11.7024
▁mis	-11.703
9842	-11.7031
679.	-11.7035
ంత	-11.7041
▁routes	-11.7042
abr	-11.7045
MN	-11.7046
.2086	-11.7047
▁2108	-11.7049
1637	-11.705
TZ	-11.7057
5855	-11.7057
3,9,4	-11.706
45.76	-11.7068
3539	-11.7068
TNCR	-11.7069
5247	-11.7071
LV	-11.7085
5931	-11.7087
▁Sol	-11.7091
2113	-11.7091
167.	-11.7092
YN	-11.7093
BO	-11.7095
3084	-11.7099
▁16,7,	-11.7099
5967	-11.7099
468.	-11.7102
HAB	-11.7107
10,000	-11.711
NN	-11.7112
▁320	-11.7116
VANI	-11.7118
6567	-11.7123
AMIL	-11.7123
QM	-11.7124
ewar	-11.7125
3,4,0	-11.7127
3667	-11.7127
gin	-11.7135
▁55082	-11.7135
3570	-11.7137
HIS	-11.7142
9176	-11.7146
▁Puram	-11.7149
2964	-11.715
uper	-11.7152
1,0,0	-11.7155
XG	-11.7156
2813	-11.7159
2545	-11.7166
6,3	-11.7179
70730	-11.718
3492	-11.7182
▁4-	-11.7183
399.00	-11.7186
.3,7,3	-11.719
▁**256	-11.7208
1567	-11.7208
LP	-11.7209
3,73	-11.721
22.00	-11.7215
MQ	-11.7216
99.66	-11.7218
wu	-11.7229
4307	-11.7229
1962	-11.7234
9974	-11.7241
47435	-11.7244
41164	-11.7246
76925	-11.7253
8028	-11.7262
9192	-11.7264
▁6005	-11.7269
DER	-11.7271
7388	-11.7288
4491	-11.729
8.04	-11.7292
2284	-11.7292
18612	-11.7293
,019.	-11.7298
7080	-11.7299
6237	-11.7301
422.	-11.7303
9169	-11.7307
▁5585	-11.7307
Np	-11.7317
4458	-11.7317
2409	-11.7319
1092	-11.7321
7602	-11.7323
4257	-11.7323
▁**258	-11.7328
▁₹1,2,	-11.7336
6578	-11.7354
8883	-11.7355
90.00	-11.7361
784.	-11.7369
4949	-11.7369
8313	-11.737
2077	-11.7393
▁MOT	-11.7394
AV	-11.7403
99090	-11.7403
19052	-11.7413
▁he	-11.7415
1978	-11.7416
8749	-11.7417
6.53	-11.7428
6739	-11.743
▁788	-11.7431
000*	-11.7486
22746	-11.7491
3542	-11.7493
2756	-11.7501
4784	-11.7511
KK	-11.752
▁55380	-11.7524
4042	-11.7535
23048	-11.7543
8640	-11.7546
3252	-11.755
4864	-11.7551
1,0,5	-11.7551
4321	-11.7552
▁28/03/2	-11.7557
4741	-11.7559
▁అంతర	-11.7565
3915	-11.7566
1073	-11.7568
8534	-11.7571
▁ende	-11.7578
934.	-11.7588
4905	-11.7591
KG	-11.7593
8074	-11.7596
4797	-11.7599
2.20	-11.7603
9402	-11.7603
9723	-11.7606
▁**119	-11.7612
9592	-11.7617
8293	-11.762
78010	-11.7622
2122	-11.7623
6001	-11.7632
3094	-11.7632
6391	-11.7634
9409	-11.7637
▁KU	-11.7647
1854	-11.7648
6798	-11.7655
7198	-11.7661
5035	-11.7663
1697	-11.7666
1152	-11.7668
2439	-11.7675
4852	-11.7676
6335	-11.7681
7562	-11.7682
8474	-11.7684
3698	-11.7693
6310	-11.7695
itiz	-11.7695
1983	-11.7704
5699	-11.7705
▁**613	-11.7707
.301	-11.7709
5668	-11.7711
9676	-11.7728
1166	-11.7735
Bl	-11.7735
9704	-11.7742
4091	-11.7743
1895	-11.7743
▁168	-11.7751
8535	-11.7768
3506	-11.7774
5201	-11.7776
3.09	-11.778
7937	-11.7781
4973	-11.7786
4088	-11.7791
6445	-11.7793
▁086	-11.78
1921	-11.7812
,8,10	-11.7817
5263	-11.7821
1315	-11.7822
3788	-11.7827
6,5	-11.7832
▁3148	-11.7842
3322	-11.7845
9212	-11.785
9232	-11.7852
8844	-11.7861
1,2,8	-11.7869
2488	-11.7874
6702	-11.7876
5562	-11.7881
.898	-11.7898
9474	-11.79
3378	-11.7904
7652	-11.7906
1256	-11.7912
2690	-11.7913
3250	-11.7921
2495	-11.7923
7327	-11.7925
356.	-11.7943
1533	-11.7944
55670	-11.7951
668.	-11.7952
7765	-11.7958
4144	-11.7959
6792	-11.7966
6059	-11.7974
Vd	-11.7984
3287	-11.7988
▁04/08/2	-11.7995
6051	-11.8018
6888	-11.802
Fiber	-11.8027
9108	-11.8031
.2615	-11.8034
5249	-11.8044
▁01:2	-11.8045
9206	-11.8048
▁Heal	-11.8057
1357	-11.8061
3412	-11.8064
7935	-11.8073
7899	-11.8081
8813	-11.8102
1881	-11.8103
206.	-11.8105
2932	-11.8116
4,705.	-11.8116
ZV	-11.8134
9276	-11.8136
tw	-11.8138
2593	-11.8143
UP	-11.8144
1407	-11.8147
3910	-11.815
5314	-11.8152
1556	-11.8168
6898	-11.8173
HZ	-11.8176
▁**169	-11.8181
▁**853	-11.8184
▁02:0	-11.8193
3668	-11.8194
2.65	-11.8197
.5000	-11.82
▁05/07/2	-11.8201
33589	-11.8207
345.	-11.8209
▁Employe	-11.8212
1679.	-11.8212
ARA	-11.8216
7.50	-11.8236
ails	-11.8245
8815	-11.8264
3,4,8	-11.827
6753	-11.8277
ters	-11.8299
8,3,	-11.8309
3363	-11.8316
7829	-11.8325
8,1,	-11.835
7293	-11.8351
4059	-11.8358
3085	-11.8379
DV	-11.8392
1878	-11.8398
3631	-11.8399
tel	-11.8411
oles	-11.8441
6342	-11.8446
5989	-11.8453
2167	-11.8456
8362	-11.8457
560.	-11.8488
6475	-11.8503
7892	-11.8503
3681	-11.851
▁21/07/2	-11.8516
6931	-11.8531
6128	-11.8553
8739	-11.8617
5142	-11.8628
5341	-11.8633
451.	-11.8634
5809	-11.8654
రాబ	-11.8658
5590	-11.8669
908.	-11.8671
7157	-11.8671
5633	-11.8675
16683	-11.8677
oints	-11.8681
.4140	-11.8701
5364	-11.8704
1294	-11.8705
4030	-11.871
రీ	-11.8732
5657	-11.8744
1153	-11.8748
2,1,3	-11.8753
gram	-11.876
2944	-11.8765
▁16:5	-11.8767
3122	-11.8776
4835	-11.8777
8777	-11.8784
PQ	-11.8798
gg	-11.8807
2286	-11.8812
3670	-11.8815
4480	-11.8825
1120	-11.8842
2,4,4	-11.885
2821	-11.8857
ANA	-11.8879
1855	-11.8891
2044	-11.8894
4119	-11.8899
gZ	-11.8907
3784	-11.8914
8113	-11.8943
8648	-11.8947
7839	-11.8947
QY	-11.8963
.508	-11.8968
.3582	-11.8976
9643	-11.8982
9419	-11.8997
6734	-11.9012
FG	-11.902
806.	-11.9025
6196.	-11.9038
▁Deactivate	-11.9039
ames	-11.9052
9141	-11.9062
ంచ	-11.9065
5353	-11.9074
▁436	-11.9099
3104	-11.9104
8792	-11.9112
,882	-11.9123
las	-11.9128
1624	-11.9131
9156	-11.9147
▁13:1	-11.9148
4013	-11.9155
7763	-11.9162
4255	-11.9174
ZZ	-11.9184
1767	-11.9185
1275	-11.9189
8428	-11.9191
2375	-11.9193
ZR	-11.9209
7815	-11.9224
UU	-11.9254
8473	-11.9265
VM	-11.9271
78229	-11.9281
8985	-11.9287
6263	-11.9309
▁07/08/2	-11.9312
2053	-11.9314
146.	-11.932
1642	-11.9361
9004	-11.9363
▁చేయ	-11.9366
6416	-11.9369
▁846	-11.9369
een	-11.9382
198.	-11.9393
SO	-11.9399
941.	-11.9406
▁14:4	-11.9414
4,8,7	-11.9424
2117	-11.9434
VZ	-11.9443
3013	-11.9448
7889	-11.9453
,289.	-11.9456
7833	-11.9473
4802	-11.9481
6725	-11.9491
045.	-11.9501
3192	-11.9504
▁record	-11.9507
52.5	-11.9514
▁636	-11.9524
3056	-11.9533
7796	-11.9557
563.	-11.9559
IPL	-11.958
4899	-11.9596
▁smart	-11.9603
4,7,8	-11.9612
11579	-11.9613
3921	-11.9614
6519	-11.9624
2998	-11.9632
8501	-11.9634
8568	-11.9641
9834	-11.9652
4719	-11.9661
4702	-11.9666
6286	-11.9679
2400	-11.9701
-06-2025	-11.971
6264	-11.9718
వీ	-11.9726
0901	-11.9731
6437	-11.9746
ISETT	-11.9752
1719	-11.9754
6392	-11.9754
2524	-11.9757
4775	-11.9761
798.	-11.9781
7546	-11.9783
5952	-11.9786
vailable	-11.9815
2106	-11.9828
3180	-11.983
FU	-11.9832
uch	-11.9834
3,4,7	-11.9838
13677	-11.9838
4116	-11.9843
6194	-11.9844
6201	-11.9845
lim	-11.9855
ttu	-11.9862
994.	-11.9871
support	-11.9874
3348	-11.9878
4673	-11.9883
6166	-11.9883
JP	-11.9883
TSTAR	-11.9887
5531	-11.9888
▁₹3,28	-11.989
fit	-11.9893
logg	-11.9894
rekha	-11.9898
INDmoney	-11.9898
Krishna	-11.99
prakash	-11.9901
rohit	-11.9902
anita	-11.9902
Jain	-11.9908
calls	-11.991
316.	-11.9912
olic	-11.9915
URR	-11.9917
QN	-11.9919
code	-11.9936
gas	-11.9939
Sun	-11.9944
make	-11.9945
9988	-11.9959
3976	-11.9961
8657	-11.9962
9398	-11.9967
olog	-11.9981
Loc	-11.9987
1,8,2	-11.9989
8936	-11.9989
meera	-12.0002
1248	-12.0009
1756	-12.0012
474.	-12.0025
904.	-12.0036
్ట	-12.0039
0788	-12.0053
5664	-12.0064
1:19	-12.0072
63.00	-12.0082
▁Advi	-12.0102
▁2025-04-	-12.0111
1,6,0	-12.0124
1478	-12.0129
▁spend	-12.0142
▁reward	-12.0144
ecords	-12.0145
tock	-12.0149
ILL	-12.0154
1148	-12.0159
8817	-12.0166
975.	-12.017
9/9/2024.	-12.0172
hdfc	-12.0177
luxee	-12.0178
▁PAT	-12.0178
▁15/03/2	-12.0181
▁receiv	-12.0181
▁sur	-12.0182
▁Ramakrishna	-12.0186
10,7,	-12.0189
tter	-12.0193
charges	-12.0193
arnival	-12.0195
5619	-12.0198
10,0,	-12.0199
ervice	-12.0199
ccess	-12.0199
cket	-12.02
▁electric	-12.02
▁చేయబడ	-12.02
4035861882.	-12.02
సుకోవ	-12.02
▁Contr	-12.02
APLPHR	-12.02
SAMS	-12.02
ెరుగ	-12.02
▁7674044126	-12.02
▁GNGGN	-12.02
▁మార్చ	-12.02
▁eligib	-12.0201
Degree	-12.0201
యంత్ర	-12.0201
▁guide	-12.0201
Thunderstorm	-12.0201
వినియోగ	-12.0201
▁10/5/2024	-12.0201
▁10/7/2024	-12.0201
▁11/5/2024	-12.0201
▁12/5/2024	-12.0201
▁18/5/2024	-12.0201
▁18/8/2024	-12.0201
▁19/7/2024	-12.0201
▁20/7/2024	-12.0201
▁20/8/2024	-12.0201
▁22/7/2024	-12.0201
▁22/8/2024	-12.0201
▁23/7/2024	-12.0201
▁3/5/2024	-12.0201
▁3/7/2024	-12.0201
▁4/7/2024	-12.0201
▁5225974	-12.0201
▁9/5/2024	-12.0201
▁9/7/2024	-12.0201
▁Amount	-12.0201
▁Bhuvanagiri	-12.0201
▁Design	-12.0201
▁HYDERABAD	-12.0201
▁SRIANDAL	-12.0201
▁SRINIVAS	-12.0201
▁SUPERMART	-12.0201
▁Vikarabad	-12.0201
▁circumstance	-12.0201
▁decision	-12.0201
▁holiday	-12.0201
▁immediately	-12.0201
▁official	-12.0201
▁other	-12.0201
▁problem	-12.0201
▁proceed	-12.0201
▁sitting	-12.0201
▁transport	-12.0201
▁అవ్వకండి	-12.0201
▁ఉన్న	-12.0201
▁తెల	-12.0201
▁స్పామ	-12.0201
▁₹50.	-12.0201
▁product	-12.0201
▁recogni	-12.0201
▁regular	-12.0201
▁+9114083678	-12.0201
▁1,00,	-12.0201
▁Break	-12.0201
▁COPY	-12.0201
▁document	-12.0201
Circle	-12.0201
ప్పుడ	-12.0201
▁surpris	-12.0201
▁చె	-12.0201
5/7/2024	-12.0201
▁Smartwatches	-12.0201
▁Zype	-12.0201
▁queue	-12.0201
CDSL	-12.0201
ISHN	-12.0201
UHY	-12.0201
▁1,86,	-12.0201
▁Medak	-12.0201
public	-12.0201
▁shipment	-12.0201
.3080.00	-12.0201
▁239000	-12.0201
title	-12.0201
▁+918069	-12.0201
▁తీ	-12.0201
▁11/11/2024.	-12.0201
uWt	-12.0201
▁dispatch	-12.0201
AMPA	-12.0201
achin	-12.0201
▁వి	-12.0201
99*/-	-12.0201
15,0,	-12.0201
rong	-12.0201
.2580.00	-12.0201
▁cancel	-12.0201
eason	-12.0202
▁waiting	-12.0202
214866	-12.0202
▁allow	-12.0202
▁₹4,28	-12.0202
లిక	-12.0202
▁విన	-12.0202
షన్ల	-12.0202
ocial	-12.0202
▁రి	-12.0202
VLK	-12.0202
▁Start	-12.0202
cause	-12.0202
▁ITD	-12.0203
7811	-12.0203
4,7,0	-12.0203
▁21791	-12.0203
Olyv	-12.0203
▁Link	-12.0203
▁confi	-12.0203
▁polic	-12.0203
Tele	-12.0203
వాద	-12.0203
ాద	-12.0203
▁AWB	-12.0204
session	-12.0204
▁activate	-12.0204
▁diamond	-12.0204
▁26/10/2024	-12.0204
14,8,	-12.0204
ాయం	-12.0205
▁46319	-12.0205
▁power	-12.0205
lfi	-12.0205
DAA	-12.0205
షన	-12.0206
▁Carnival	-12.0206
▁13/1/2024	-12.0206
▁lakh	-12.0206
,948.	-12.0206
▁26/9/2024	-12.0206
▁24/10/2024	-12.0206
19,2,	-12.0206
▁₹4,48	-12.0206
▁19/10/2024	-12.0206
3545,	-12.0207
240145	-12.0207
8522	-12.0207
▁22/1/2024	-12.0207
yes	-12.0207
THYA	-12.0207
▁18,5,	-12.0207
45560	-12.0208
▁₹3,2,7	-12.0208
▁8/10/2024	-12.0208
▁Exc	-12.0208
▁26/12/2024	-12.0208
▁16/9/2024	-12.0209
▁25/2/2024	-12.0209
▁23/12/2024	-12.0209
▁19/2/2024	-12.0209
▁14/12/2024	-12.0209
▁Col	-12.0209
▁17/2/2024	-12.0209
▁Device	-12.021
.3,27	-12.021
990915	-12.021
టో	-12.021
▁26/8/2024	-12.021
▁15/10/2024	-12.021
▁2/10/2024	-12.021
▁₹4,0,2	-12.0211
▁dial	-12.0211
▁submit	-12.0211
OGZ	-12.0212
▁Program	-12.0212
▁13/11/2024	-12.0212
ికి	-12.0213
.6000.00	-12.0213
▁24/11/2024	-12.0214
771935	-12.0214
VGD	-12.0214
▁26/3/2024	-12.0215
▁16/4/2024	-12.0215
▁56161	-12.0215
▁24/8/2024	-12.0216
▁14,3,	-12.0216
▁12/12/2024	-12.0217
entic	-12.0217
▁1/1/2024	-12.0217
NUKA	-12.0217
▁12/11/2024	-12.0217
ైన	-12.0218
4,57	-12.0219
▁17/4/2024	-12.0219
▁₹387.4	-12.0219
▁22/4/2024	-12.0219
▁6/12/2024	-12.0219
LEX	-12.0219
▁5/9/2024	-12.022
▁7/12/2024	-12.0221
▁14/6/2024	-12.0221
▁2/12/2024	-12.0222
▁16/3/2024	-12.0222
72505	-12.0222
▁55812	-12.0223
0749-	-12.0223
▁₹144.5	-12.0223
▁19,9,	-12.0223
▁70,000.00	-12.0224
▁falls	-12.0224
-3@	-12.0224
3,1,3	-12.0224
▁10/9/2024	-12.0225
-1@	-12.0226
1,8,6	-12.0226
.1250.00	-12.0226
▁₹190.2	-12.0226
89500	-12.0226
▁55240	-12.0227
.2,4,0	-12.0227
▁55010	-12.0229
56393	-12.0229
1,607.	-12.023
▁8/3/2024	-12.0231
ాం	-12.0231
6606	-12.0233
▁55052	-12.0234
▁₹396.	-12.0234
4,682.	-12.0235
▁Gu	-12.0235
1948	-12.0237
82592	-12.0237
▁9319	-12.0238
▁7/3/2024	-12.0239
▁XXXXXXXX	-12.024
HON	-12.024
▁15/3/2024	-12.024
12993	-12.024
4,6,9	-12.024
210.01	-12.024
ipt	-12.024
▁₹436.	-12.0241
▁messages	-12.0241
▁Dep	-12.0242
▁RAO	-12.0242
▁city	-12.0243
▁₹4,5,1	-12.0243
▁54900	-12.0243
0.44	-12.0244
YME	-12.0245
rings	-12.0245
14885	-12.0246
▁1/4/2024	-12.0247
▁5891	-12.0247
122706	-12.0248
▁**523	-12.0251
▁5,6,	-12.0251
25501	-12.0251
▁wind	-12.0253
▁5/3/2024	-12.0253
3,729.	-12.0255
XW	-12.0257
▁19/9/2024	-12.0257
osa	-12.026
▁11:46	-12.0261
▁8373	-12.0264
నిక	-12.0264
▁₹217.	-12.0264
▁**674	-12.0266
▁55190	-12.0266
LKA	-12.0267
టిక	-12.0267
4,7,3	-12.0267
68971	-12.0268
▁₹299.	-12.0268
▁21/03/2	-12.0269
▁30/04/25	-12.0269
REE	-12.027
▁mod	-12.0272
82530	-12.0275
65630	-12.0276
▁₹477.	-12.0277
▁valu	-12.0277
ATTA	-12.0279
4,4,0	-12.0284
▁**143	-12.0284
1947/	-12.0285
opt	-12.0285
3384	-12.0286
▁**948	-12.0288
▁8747	-12.0293
▁8951	-12.0293
91685	-12.0296
tance	-12.0296
qW	-12.0296
▁₹112.	-12.0299
PLY	-12.03
7544.	-12.03
▁**868	-12.0303
▁communicat	-12.0304
▁**681	-12.0305
98650	-12.0306
▁₹126.	-12.0306
Qq	-12.0309
▁₹176.	-12.031
eme	-12.031
38921.	-12.0312
▁**606	-12.0313
Pq	-12.0313
506@	-12.0317
obal	-12.032
▁**340	-12.0321
▁BAN	-12.0321
2189	-12.0322
EER	-12.0322
51339	-12.0323
▁3579	-12.0323
18811	-12.0326
04133	-12.0326
▁**762	-12.0327
harat	-12.0329
lasses	-12.0329
▁**113	-12.0333
▁**161	-12.0333
50224	-12.0335
WV	-12.0335
WW	-12.0336
▁5782	-12.0336
61.8	-12.0337
▁**148	-12.0339
▁**139	-12.0341
8910.	-12.0343
44057	-12.0345
2311	-12.035
92787	-12.035
03326	-12.0354
89476	-12.0356
19008	-12.0357
2663	-12.036
69527	-12.0361
▁2665	-12.0361
1,42	-12.0366
▁స్వ	-12.0367
71752	-12.0367
2426	-12.037
QQ	-12.0373
owli	-12.0375
ugar	-12.0375
▁5479	-12.0376
▁QB	-12.0379
2,9,8	-12.038
88688	-12.038
▁₹7,3	-12.0384
:07:4	-12.0385
17220	-12.0388
70693	-12.039
▁5427	-12.0394
11894	-12.0394
▁54952	-12.0394
21102	-12.0395
40.90	-12.04
▁9104	-12.04
.1070	-12.04
▁5489	-12.0401
49960	-12.0403
196.00	-12.0404
7084	-12.0405
61510	-12.0409
▁546	-12.041
▁8297	-12.0411
47449	-12.0418
43561	-12.0421
▁81.0	-12.0422
utta	-12.0427
1,119.	-12.0435
9947	-12.0435
Email	-12.0436
10976	-12.0438
.4400	-12.0447
QL	-12.0447
SEC	-12.0453
▁4692	-12.0455
24861	-12.0456
68661	-12.0459
22939	-12.046
30245	-12.0465
73103	-12.0472
392559	-12.0474
41464	-12.0474
35774	-12.0476
68822	-12.0489
XXXXXX	-12.0503
12085	-12.0504
▁5082	-12.0506
5948	-12.051
6842	-12.0511
11882	-12.0512
.1605	-12.0521
▁5600	-12.0527
66330	-12.0528
▁sight	-12.0533
40312	-12.0535
Here	-12.0536
3023	-12.0541
1-04-2025	-12.0544
88309	-12.0546
▁1887	-12.0548
984.3	-12.0551
ice	-12.0558
5374	-12.056
91810	-12.0561
90220	-12.0562
IRI	-12.0564
▁4723	-12.0567
4239	-12.0568
old	-12.0572
reg	-12.0572
00155	-12.0578
9285	-12.0581
75938	-12.0581
4/4/2024	-12.0584
12615	-12.0589
2875	-12.0592
14312	-12.0597
9131	-12.0609
*771	-12.0613
61184	-12.0616
4449	-12.0621
▁₹2,73	-12.0625
74063	-12.0629
3,6,1	-12.0631
2310	-12.0632
49802	-12.0636
84.26	-12.0653
3866	-12.0663
7795	-12.0664
8488	-12.0677
36645	-12.0678
1,0,1	-12.069
1934	-12.0691
18717	-12.0697
15663	-12.0699
3073	-12.0707
.9077	-12.0708
01835	-12.0715
6062	-12.0718
▁₹3,1,9	-12.0728
3630	-12.0733
▁9120	-12.0746
7556	-12.0754
▁5200	-12.0754
.4,50	-12.0754
863.	-12.077
1,4,7	-12.0772
▁4365	-12.0775
48.00	-12.0784
▁₹9,2	-12.0785
జా	-12.0788
8599	-12.079
2,0,4	-12.0792
92826	-12.0793
23120	-12.0796
33112	-12.0814
.3,8,6	-12.0826
28871	-12.0845
.916	-12.0853
2744	-12.0856
42999	-12.0867
▁PHA	-12.088
64602	-12.0887
4715	-12.0894
64018	-12.0903
7487	-12.0905
▁3313	-12.0907
RMA	-12.0908
9070.	-12.0921
5654	-12.0934
6539	-12.0946
martwatch	-12.0947
4356	-12.0962
10150	-12.0983
▁**294	-12.0984
11947	-12.0984
1795	-12.0992
▁Intern	-12.1
83977	-12.1001
JO	-12.1004
records	-12.1005
00722	-12.1033
▁5965	-12.105
31970	-12.105
▁5523	-12.1052
యం	-12.1068
▁**252	-12.1088
91154	-12.1092
1510	-12.1103
JL	-12.1104
48330	-12.1109
.3026	-12.1115
,3,49	-12.112
5553	-12.1148
▁2025-04-0	-12.1149
ONN	-12.1151
3628	-12.1185
.2847	-12.1189
9/4/2024	-12.1193
▁3504	-12.1209
20130	-12.1212
5/12/2024	-12.1221
TCA	-12.1233
8221	-12.1256
AYS	-12.1265
▁6817	-12.1268
8524	-12.1269
3722	-12.1289
38008	-12.1291
▁8662	-12.1304
16833	-12.1307
▁02:4	-12.1307
,501.	-12.1313
56228	-12.1327
92471	-12.133
2252	-12.1349
1778	-12.1366
14977	-12.1384
86887	-12.1389
1/12/2024	-12.1404
62059	-12.1406
2,70	-12.1416
7342	-12.1419
71317	-12.1426
8895	-12.1462
2462	-12.1464
52278	-12.1464
9:01	-12.1479
69141	-12.1479
121.	-12.1487
▁**259	-12.151
20302	-12.1512
ANT	-12.1516
▁₹2,7,2	-12.1521
449.	-12.1522
6666	-12.1537
3431	-12.1558
▁₹4,9,4	-12.1572
▁787	-12.1577
4,3,1	-12.1592
10220	-12.1613
▁19/07/2	-12.164
5500	-12.1674
4418	-12.1681
▁NIC	-12.169
4794	-12.1709
3101	-12.172
.2085	-12.1778
.3046	-12.1779
51853	-12.1784
4442	-12.1785
11271	-12.1791
,0,930.	-12.1815
▁Road	-12.1875
3,2,6	-12.1909
4060	-12.191
▁₹6,3	-12.1912
.3504	-12.1939
03929	-12.1944
1,277.	-12.1953
▁₹2,43	-12.196
9521	-12.1967
15453	-12.1996
382.	-12.1997
14554	-12.2012
.4017	-12.2036
▁08:3	-12.2042
▁**684	-12.2047
5873	-12.2059
36093	-12.2076
9411	-12.2092
6293	-12.2102
37795	-12.2113
4249	-12.2136
*438	-12.2158
738.	-12.2174
23842	-12.2181
4911	-12.2188
4251	-12.2191
37.00	-12.2231
2,6,9	-12.2239
6642	-12.228
11556	-12.2297
639.	-12.2298
3030	-12.2312
▁11/06/2	-12.2316
▁17/06/2	-12.232
7056	-12.2331
▁5462	-12.2373
7722	-12.2406
2,1,0	-12.2474
09739	-12.2534
006.	-12.2551
44412	-12.2562
4729	-12.2568
5297	-12.2587
చి	-12.2614
4421	-12.2638
▁19:4	-12.2701
,530.2	-12.2715
53863	-12.2721
.4,11	-12.2765
3553	-12.2889
.4921	-12.2907
7589	-12.2933
xxxxxxxxx	-12.2935
▁**524	-12.2947
oads	-12.2947
21938	-12.2956
▁14/06/2	-12.2958
70014	-12.3049
ARSH	-12.3069
▁962	-12.309
3185	-12.3096
2502	-12.3172
1,18	-12.3186
2788	-12.3189
atches	-12.3189
▁9,9	-12.323
3987	-12.3243
.4593	-12.3268
,780.3	-12.3275
2753	-12.3302
.2856	-12.3305
69837	-12.3326
▁16:1	-12.3353
5215	-12.336
2162	-12.3411
.3002	-12.349
.4,65	-12.3492
AGA	-12.3613
.3033	-12.364
6200	-12.3655
789.	-12.3676
ోన్	-12.3701
.1856	-12.3702
PUR	-12.3714
4,3,44	-12.3732
3,939.	-12.3734
8588	-12.377
.2646	-12.379
4,8,6	-12.3904
77019	-12.3933
▁2025-04-1	-12.3949
15858	-12.3998
2,5,2	-12.3999
▁₹1,4	-12.4045
9431	-12.4052
▁862	-12.4088
,1,750.	-12.4097
84245	-12.41
88122	-12.4227
53117	-12.4242
3491	-12.425
▁local	-12.4257
1,6,5	-12.4258
ARSHA	-12.4294
2,67	-12.4325
FNV	-12.4326
3730	-12.4334
▁11/07/2	-12.4356
,1,964.	-12.4361
44720	-12.4361
4,91	-12.4394
.2010	-12.441
,925.9	-12.4419
,781.00	-12.4468
1,4,69	-12.4629
edica	-12.465
▁eas	-12.4657
▁8,2,	-12.4693
38.00	-12.4696
xxxxxx	-12.4728
10359	-12.4769
38422	-12.4783
40892	-12.4812
06347	-12.4825
▁06/06/2	-12.4845
08290	-12.4852
rocessing	-12.4863
▁14-07-2	-12.4865
Contact	-12.4883
digit	-12.4887
expiry	-12.489
Open	-12.4891
Auto	-12.4892
CARD	-12.4899
verify	-12.49
ankit	-12.49
contact	-12.4902
01/06/2025	-12.4902
AMAZON	-12.4904
mobile	-12.4904
anjali	-12.4905
visit	-12.4905
Visit	-12.4906
App	-12.4906
Offer	-12.4906
యాప్	-12.4907
PhonePe	-12.4907
Apollo	-12.4908
Hyderabad	-12.4909
offer	-12.4909
Sub	-12.4909
login	-12.4917
Vis	-12.4929
75448	-12.4951
▁899.0	-12.4963
olut	-12.497
▁PRA	-12.4975
RIVIN	-12.4999
▁che	-12.5042
98371	-12.5044
TRA	-12.5047
wers	-12.5072
▁15,2,	-12.5073
23931	-12.5096
టి	-12.5101
ampath	-12.5106
uci	-12.511
▁mandat	-12.5115
▁Authenticat	-12.5118
▁CHI	-12.5128
scription	-12.5131
▁message	-12.5135
▁place	-12.5141
uccessful	-12.5142
glasses	-12.5149
2,000.	-12.5149
▁commu	-12.5158
▁కొ	-12.516
atory	-12.5169
VANAN	-12.517
1,2,2	-12.517
▁deliver	-12.5175
eactivate	-12.5177
/05/2025.	-12.5181
▁+911409320	-12.5186
morrow	-12.5186
▁₹4,0,7	-12.5187
▁Receiv	-12.5188
ున్నార	-12.519
▁Bhandar	-12.5196
యాప	-12.5196
Spark	-12.5196
1/05/2025	-12.5196
▁DHEERA	-12.5197
utio	-12.5197
urrent	-12.5197
▁own	-12.5198
ewellery	-12.5198
ాయపడ	-12.5198
eevansathi	-12.5198
rofile	-12.5199
చ్చి	-12.5199
iometric	-12.52
quire	-12.52
ుకోండి	-12.52
OLYVM	-12.52
▁eligibility	-12.52
▁2025-05-0	-12.52
6,7,0	-12.52
▁2025-07-	-12.52
Digit	-12.52
:31/03/20	-12.5201
arikondaniranjan	-12.5201
▁1,09,2	-12.5201
▁52012384	-12.5201
▁7,5,17	-12.5201
▁1,08,93	-12.5201
▁1800110420/1963	-12.5201
▁KONDA	-12.5201
▁Wednesday	-12.5201
▁generate	-12.5201
▁₹98.	-12.5201
-518823309459	-12.5201
-518923376684	-12.5201
.1,7,285.	-12.5201
1,9,3	-12.5201
6671385	-12.5201
7,711.80	-12.5201
7-02-2025,22:45.	-12.5201
PLAYO	-12.5201
SARITHA	-12.5201
akhapatnam	-12.5201
arikonda	-12.5201
eMyTrip	-12.5201
investment	-12.5201
settings	-12.5201
ందు	-12.5201
ప్పటిక	-12.5201
▁1,01,63	-12.5201
▁1,20,228	-12.5201
▁1/7/2024	-12.5201
▁11,4,4	-12.5201
▁12,3,069.	-12.5201
▁12/03/2025	-12.5201
▁13:38:17	-12.5201
▁14/7/2024	-12.5201
▁16:31:09	-12.5201
▁18/7/2024	-12.5201
▁18001035577	-12.5201
▁2025-04-15:13:0	-12.5201
▁21/5/2024	-12.5201
▁22/5/2024	-12.5201
▁23/5/2024	-12.5201
▁27/8/2024	-12.5201
▁28/8/2024	-12.5201
▁55241554	-12.5201
▁8106050976@	-12.5201
▁8801152747@	-12.5201
▁Agencies	-12.5201
▁Calculat	-12.5201
▁Department	-12.5201
▁Elegance	-12.5201
▁Habsiguda	-12.5201
▁Marketplace	-12.5201
▁Mastii	-12.5201
▁Servify	-12.5201
▁Suryapet	-12.5201
▁Value	-12.5201
▁World	-12.5201
▁different	-12.5201
▁iMobile	-12.5201
▁inactive	-12.5201
▁quarter	-12.5201
▁rupees	-12.5201
▁special	-12.5201
▁urgent	-12.5201
▁కస్టమ	-12.5201
▁తెలియజేయండి	-12.5201
▁₹686.8	-12.5201
▁₹92.	-12.5201
▁child	-12.5201
,2,309.	-12.5201
4,5,14	-12.5201
▁+91140909	-12.5201
▁1,09,4	-12.5201
▁5196354	-12.5201
▁5487179	-12.5201
▁55590853	-12.5201
▁MOHAMM	-12.5201
▁cloud	-12.5201
▁unauthori	-12.5201
▁year	-12.5201
(30-40)	-12.5201
2,9,122.2	-12.5201
3,242.	-12.5201
ailure	-12.5201
▁2025-03-19:15:0	-12.5201
▁55800867	-12.5201
▁7,9,	-12.5201
▁7666679	-12.5201
▁RAMESH	-12.5201
▁Verif	-12.5201
▁₹16,5,	-12.5201
7454690	-12.5201
▁₹7,7,1	-12.5201
,382.15	-12.5201
/127940/	-12.5201
1,4,5	-12.5201
MZQ	-12.5201
YFGG	-12.5201
▁17,0,	-12.5201
▁2025-03-16:21:1	-12.5201
▁7,8,	-12.5201
▁Grand	-12.5201
▁expert	-12.5201
URESH	-12.5201
hamma	-12.5201
,2,742.	-12.5201
3660421	-12.5201
natur	-12.5201
▁drop	-12.5201
▁fashion	-12.5201
6704542	-12.5201
QAP	-12.5201
▁1,06,	-12.5201
▁5538294	-12.5201
0,371.02	-12.5201
7492643	-12.5201
8699728	-12.5201
9,674.	-12.5201
▁082056	-12.5201
▁1,05,	-12.5201
▁8,4,3	-12.5201
PHT	-12.5201
▁2441702	-12.5201
,0,292.15	-12.5201
4,758.	-12.5201
▁1,6,022.	-12.5201
3,936.	-12.5201
▁2025-03-21:10:	-12.5201
▁2025-05-07:1	-12.5201
,8,077.	-12.5201
=25134001	-12.5201
GJN	-12.5201
XFF	-12.5201
▁Work	-12.5201
.1,8,5	-12.5201
▁1,03,	-12.5201
▁2025-03-29:18:	-12.5201
▁8,8,6	-12.5201
2369252	-12.5201
▁2025-03-04:1	-12.5201
▁Enable	-12.5201
2019917	-12.5201
850332	-12.5201
▁2025-08-01	-12.5201
▁268893	-12.5201
▁వచ్చిన	-12.5201
FEB	-12.5201
▁Cli	-12.5201
rise	-12.5201
3901125	-12.5201
4632271	-12.5201
▁83143	-12.5201
11,9,	-12.5201
6362152	-12.5201
955213	-12.5201
▁27/10/2024.	-12.5201
▁Zone	-12.5201
9,382.	-12.5201
▁5,7,	-12.5201
phon	-12.5201
▁772281	-12.5201
▁5103180	-12.5201
▁Low	-12.5201
▁5168809	-12.5201
1,2,861.8	-12.5201
972173	-12.5201
NDRA	-12.5201
09882366	-12.5201
oRF	-12.5201
▁359371	-12.5201
▁MAKA	-12.5201
19,7,	-12.5201
.1,001.	-12.5201
687031	-12.5201
▁₹2,6,1	-12.5201
581680	-12.5201
.3,344.	-12.5201
▁478999.	-12.5201
,2,763.	-12.5201
▁545301	-12.5201
.3,311.	-12.5201
▁9,6,8	-12.5202
▁pickup	-12.5202
PORT	-12.5202
చ్చిన	-12.5202
▁8/9/2024.	-12.5202
313975	-12.5202
▁August	-12.5202
269753	-12.5202
.3,393.	-12.5202
Vpn	-12.5202
▁5601202	-12.5202
▁INDUSTR	-12.5202
5209478	-12.5202
▁Plat	-12.5202
.43686	-12.5202
▁high	-12.5202
.3,1,4	-12.5202
lip	-12.5202
1,5,794.	-12.5202
▁accept	-12.5202
453137	-12.5202
wlR	-12.5202
▁13:53.	-12.5202
iRg	-12.5202
▁15,4,	-12.5202
14:11:	-12.5202
▁2,6,89	-12.5202
VCHR	-12.5202
848976	-12.5202
ssist	-12.5202
▁8/12/2024.	-12.5202
CVV	-12.5202
.1880.00	-12.5202
▁Prote	-12.5202
5110894	-12.5202
729179	-12.5202
▁10:15.	-12.5202
946489	-12.5202
.4,2,0	-12.5202
YAMMA	-12.5202
279429	-12.5202
4,596.	-12.5202
,951.0	-12.5202
▁₹1,8,6	-12.5202
▁₹1,8,7	-12.5202
652277	-12.5202
313291	-12.5202
▁బ్	-12.5202
▁₹3,9,8	-12.5202
tments	-12.5202
▁9,4,	-12.5202
645089	-12.5202
392076	-12.5202
▁17,2,91	-12.5202
638077	-12.5202
▁₹1,7,72	-12.5202
RAVAN	-12.5202
▁13/3/2024.	-12.5202
తించ	-12.5203
▁₹4,1,5	-12.5203
838186	-12.5203
▁55243	-12.5203
530332	-12.5203
134610	-12.5203
19,4,0	-12.5203
LRR	-12.5203
.4,534.	-12.5203
▁29703	-12.5203
58091	-12.5203
investor	-12.5203
866073	-12.5203
522125	-12.5203
109581	-12.5203
▁₹15,1,	-12.5203
▁1,07,	-12.5203
▁01:05	-12.5203
31634.	-12.5203
051897	-12.5203
QZB	-12.5203
▁19/05/2025.	-12.5203
▁79753	-12.5204
▁₹8,3,	-12.5204
▁₹4,802.8	-12.5204
4,733.	-12.5204
706618	-12.5204
▁86679	-12.5204
547134	-12.5204
ype	-12.5204
▁₹1,6,5	-12.5204
461858	-12.5204
▁31686	-12.5204
699969	-12.5204
4,6,6	-12.5204
635160	-12.5204
237013	-12.5204
▁74756	-12.5204
360219	-12.5204
763856	-12.5204
.4,707.	-12.5204
▁13:30.	-12.5204
▁₹1,6,8	-12.5204
.2,399.6	-12.5204
674766	-12.5204
862364	-12.5205
1,088.5	-12.5205
,1,788.	-12.5205
711147	-12.5205
eting	-12.5205
OutSpark	-12.5205
▁₹2,4,2	-12.5205
784767	-12.5205
915779	-12.5205
▁Ranga	-12.5205
6,3,2	-12.5205
0927192	-12.5205
3,1,98	-12.5205
954678	-12.5205
.2,1,4	-12.5206
601955	-12.5206
▁2,2,3	-12.5206
▁2,6,1	-12.5206
.33635	-12.5206
399146	-12.5206
,2,922.	-12.5206
▁₹4,0,5	-12.5206
▁02874	-12.5206
1,2,610.	-12.5206
71705.	-12.5206
Getaway	-12.5206
ాలక	-12.5206
622288	-12.5206
▁NetBanking	-12.5206
,8,951.	-12.5206
▁₹3,597.9	-12.5206
eller	-12.5206
▁grou	-12.5207
2849857	-12.5207
▁₹2,823.5	-12.5207
,695.4	-12.5207
▁11/1/2024	-12.5207
▁19,5,	-12.5207
,8,369.	-12.5207
3,502.	-12.5207
orry	-12.5207
352586	-12.5207
335161	-12.5207
855975	-12.5207
▁23/10/2024	-12.5207
vkyc	-12.5207
491209	-12.5207
60133.	-12.5208
181501	-12.5208
593676	-12.5208
LEU	-12.5208
4578625	-12.5208
ిన్	-12.5208
953951	-12.5208
92010.	-12.5208
160446	-12.5208
913024	-12.5208
63015	-12.5208
3,9,473.	-12.5208
766407	-12.5208
538173	-12.5208
840954	-12.5208
880310	-12.5208
920103	-12.5209
ZTZ	-12.5209
882573	-12.5209
▁33298	-12.5209
▁73253	-12.5209
,475.2	-12.5209
20:41.	-12.5209
,131.4	-12.5209
356664	-12.5209
▁₹337.0	-12.5209
augura	-12.5209
SHANK	-12.5209
45813	-12.5209
76964	-12.5209
,0,737.	-12.5209
95.04.	-12.5209
907092	-12.521
XWg	-12.521
378073	-12.521
.3,4,9	-12.521
2,5,4	-12.521
450750	-12.521
.2,1,5	-12.521
19453	-12.521
VFQ	-12.521
182522	-12.5211
011423	-12.5211
.8,7	-12.5211
FWM	-12.5211
111899	-12.5211
310559	-12.5211
.2,1,8	-12.5211
93603	-12.5211
▁rece	-12.5211
▁₹1,3,35	-12.5211
875210	-12.5211
5,426.	-12.5211
32447	-12.5211
▁₹2,6,4	-12.5211
996101	-12.5211
16:27.	-12.5211
.3,508.	-12.5211
▁25/10/2024	-12.5211
trea	-12.5211
▁₹5,9,	-12.5211
స్తున్నా	-12.5211
418633	-12.5212
▁01/07/25	-12.5212
▁₹4,0,42	-12.5212
8321605	-12.5212
37432	-12.5212
513232	-12.5212
512746	-12.5212
253240	-12.5212
▁₹2,2,5	-12.5213
grow	-12.5213
▁+91124	-12.5213
103338	-12.5213
cyber	-12.5213
▁₹2,3,6	-12.5213
92989	-12.5213
,7,486.	-12.5213
▁52352	-12.5213
.1,278.	-12.5213
32429	-12.5213
745466	-12.5214
WLL	-12.5214
892083	-12.5214
2,449.	-12.5214
VCY	-12.5214
▁₹233.0	-12.5214
modif	-12.5214
806903	-12.5214
059022	-12.5214
54840	-12.5214
▁11,1,	-12.5214
300976	-12.5214
1,818.1	-12.5215
105935	-12.5215
▁₹403.6	-12.5215
BAKA	-12.5215
791693	-12.5215
567180	-12.5215
3,308.	-12.5215
197106	-12.5215
832508	-12.5215
▁+91140932054	-12.5216
5564032	-12.5216
320843	-12.5216
hipped	-12.5216
mers	-12.5216
▁8,6	-12.5216
▁45231	-12.5216
2,6,015.	-12.5216
.1,482.	-12.5216
RABAD	-12.5216
61725	-12.5216
88393	-12.5216
▁₹3,003.	-12.5216
▁₹13,0,	-12.5216
94273.	-12.5217
6394099	-12.5217
976309	-12.5217
MJR	-12.5217
770.02	-12.5217
▁10:05	-12.5217
323128	-12.5217
▁₹1,6,7	-12.5217
▁54329	-12.5217
63854	-12.5217
889532	-12.5217
Ship	-12.5218
▁18:28	-12.5218
.3,2,5	-12.5218
4419199	-12.5218
000101	-12.5218
▁1,3,	-12.5218
723376	-12.5218
▁₹3,462.	-12.5218
32425	-12.5218
90425	-12.5219
,709.01	-12.5219
113745	-12.5219
▁8/2/2024	-12.5219
3,325.	-12.5219
.4,8,8	-12.5219
822248	-12.5219
841949	-12.5219
2,971.	-12.5219
540437	-12.5219
lugu	-12.5219
▁16,9,	-12.522
323293	-12.522
,1,565.2	-12.522
288902	-12.522
389743	-12.522
.2,803.	-12.522
334439	-12.522
▁₹349.9	-12.522
256283	-12.522
▁₹2,893.	-12.522
27816	-12.522
.1,667.	-12.5221
306684	-12.5221
▁31/05/2025	-12.5221
INDIA	-12.5221
▁₹2,6,9	-12.5221
981436	-12.5221
▁₹4,7,1	-12.5222
695150	-12.5222
220411	-12.5222
▁₹407.8	-12.5222
▁₹3,339.	-12.5222
▁digesti	-12.5222
88140.	-12.5223
39917	-12.5223
498475	-12.5223
.3,4,19	-12.5223
30026.	-12.5223
2000302	-12.5224
▁53454	-12.5224
▁₹452.3	-12.5224
53027	-12.5224
4,8,0	-12.5224
▁18/4/2024	-12.5224
▁₹3,994.	-12.5225
30108	-12.5225
.7,30	-12.5225
178.30	-12.5225
▁57953	-12.5225
173580	-12.5225
ఆ	-14.3924
ఛ	-14.3925
ఇ	-14.3926
ఉ	-14.3927
అ	-14.3928
మ	-14.3929
స	-14.393
₹	-14.3931
